<unk>	0
<s>	0
</s>	0
▁	-2.83879
.	-3.50658
의	-4.21766
에	-4.23098
을	-4.32298
는	-4.34276
이	-4.37969
를	-4.47235
가	-4.61044
,	-4.63571
은	-4.91258
도	-4.96214
고	-4.97518
)	-5.02334
(	-5.02753
▁있다	-5.12145
로	-5.22086
▁등	-5.2411
과	-5.28581
지	-5.33718
한	-5.34445
·	-5.41811
에서	-5.41979
인	-5.42085
▁수	-5.42786
’	-5.48349
”	-5.52384
▁‘	-5.52557
▁“	-5.52808
기	-5.5505
다	-5.56739
으로	-5.57513
와	-5.57965
일	-5.61142
할	-5.62007
해	-5.65669
하고	-5.68093
▁이	-5.68185
하는	-5.69145
했다	-5.90195
▁있는	-5.95757
만	-5.98459
이다	-6.00091
▁1	-6.01275
사	-6.03296
▁것으로	-6.05454
자	-6.0634
리	-6.27355
스	-6.27362
년	-6.28819
대	-6.34207
개	-6.37637
▁○	-6.41797
▁:	-6.43176
나	-6.46333
주	-6.46602
수	-6.47487
원	-6.48964
월	-6.50238
▁3	-6.50978
▁2	-6.52115
▁인터넷	-6.52348
서	-6.52845
된	-6.54307
며	-6.54363
성	-6.55338
장	-6.55575
▁것	-6.56533
▁개발	-6.57607
@	-6.59162
▁한	-6.61816
어	-6.62103
시	-6.6412
화	-6.64156
▁또	-6.67629
▁검색	-6.6769
kr	-6.68301
co	-6.69335
▁및	-6.70682
▁전	-6.72279
▁4	-6.73201
▁국내	-6.73216
세	-6.74023
▁서비스	-6.7442
상	-6.75276
▁말했다	-6.75504
▁대한	-6.75747
이라고	-6.75794
명	-6.75963
정	-6.76914
"	-6.78105
용	-6.78777
et	-6.79955
▁지난	-6.8274
▁위해	-6.84627
▁통해	-6.85634
▁한국	-6.86487
위	-6.86954
news	-6.8704
▁"	-6.88817
▁최근	-6.89044
전	-6.89794
▁경우	-6.90373
▁5	-6.90485
2	-6.91597
▁신문	-6.92174
일자	-6.92279
부	-6.92896
적	-6.92933
선	-6.93021
게재	-6.9445
들이	-6.94682
시간	-6.95764
▁계획	-6.96785
▁중	-6.97013
치	-6.98931
대표	-7.00004
하기	-7.02006
까지	-7.03227
▁특히	-7.03872
▁따라	-7.03925
면	-7.05528
>	-7.05652
▁밝혔다	-7.05851
진	-7.0787
'	-7.08308
▁<	-7.0905
간	-7.10037
되는	-7.1069
▁10	-7.1089
▁그	-7.11615
천	-7.12229
▁입력	-7.12977
▁관련	-7.13687
게	-7.14247
제	-7.14513
▁올해	-7.1494
3	-7.15538
▁PC	-7.15942
드	-7.1648
▁IT	-7.17512
▁지난해	-7.19195
▁기술	-7.19894
▁6	-7.22103
동	-7.22391
될	-7.2302
▁대해	-7.23447
하지	-7.23528
=	-7.23666
돼	-7.24785
아	-7.2484
▁미국	-7.24933
4	-7.2498
보다	-7.2503
적인	-7.26062
내	-7.26457
라	-7.26661
구	-7.26847
▁위한	-7.26847
적으로	-7.2685
▁세계	-7.27488
소	-7.28102
보	-7.28263
비	-7.29284
산	-7.30072
▁시장	-7.30265
▁현재	-7.30505
:	-7.30972
조	-7.31548
▁전망	-7.31626
당	-7.31945
▁MS	-7.33333
중	-7.33451
▁소프트웨어	-7.33555
되고	-7.33643
▁기업	-7.34291
하게	-7.35557
▁이에	-7.36438
야	-7.37005
회	-7.38279
▁등을	-7.38476
▁따르면	-7.38787
w	-7.39878
▁정	-7.40008
▁이번	-7.40041
▁8	-7.40239
▁일본	-7.40427
면서	-7.41017
재	-7.41304
된다	-7.41916
▁데	-7.425
-	-7.42514
억	-7.43129
▁제품	-7.43578
형	-7.44056
▁컴퓨터	-7.44879
미	-7.44933
▁이를	-7.44994
▁e	-7.45526
급	-7.45655
▁했다	-7.46012
들은	-7.46106
▁한다	-7.46416
▁것은	-7.46567
▁함께	-7.46846
안	-7.47161
▁SW	-7.47385
이나	-7.47654
질	-7.47714
▁주	-7.49003
던	-7.5071
▁있어	-7.50757
트	-7.51309
여	-7.51763
▁부	-7.52052
됐다	-7.52495
법	-7.52599
▁같은	-7.52712
▁'	-7.53288
해야	-7.53549
한다	-7.53609
기술	-7.53663
▁것이	-7.53852
▁사업	-7.54086
▁7	-7.54565
관	-7.55496
▁다른	-7.55577
▁보안	-7.55638
▁윈도	-7.55696
식	-7.55942
▁가장	-7.56428
▁말	-7.56692
▁그러나	-7.56952
▁시	-7.56997
▁9	-7.57436
▁유	-7.57469
▁웹	-7.5782
▁◇	-7.57933
1	-7.58294
체	-7.58487
▁내	-7.58605
▁김	-7.5897
단	-7.59407
종	-7.60063
신	-7.60229
▁대	-7.60325
▁바	-7.61065
분	-7.62007
권	-7.62161
▁이어	-7.63789
▁새로운	-7.63968
▁큰	-7.64272
▁△	-7.64316
e	-7.64507
C	-7.65049
배	-7.65649
오	-7.65688
▁것이다	-7.66055
공	-7.66527
▁가운데	-7.6668
▁이상	-7.67269
업체	-7.67284
무	-7.68123
금	-7.68634
▁때	-7.6868
영	-7.68811
문	-7.69128
▁제	-7.69244
계	-7.69326
하	-7.69367
차	-7.69733
▁더	-7.69847
▁한편	-7.70458
연	-7.70526
A	-7.70996
▁게임	-7.71249
▁투자	-7.71485
히	-7.71503
▁정보	-7.71629
▁뒤	-7.71936
▁디지털	-7.72189
ww	-7.72363
국	-7.72832
▁판매	-7.73053
5	-7.7309
▁포털	-7.73091
▁관계자는	-7.73303
들의	-7.73444
서비스	-7.74001
졌다	-7.74025
유	-7.74062
하다	-7.74119
▁이날	-7.74422
에게	-7.74475
실	-7.74683
운	-7.74884
▁이후	-7.7516
▁미	-7.75167
▁연구	-7.75261
하면서	-7.75409
▁후	-7.75519
파	-7.7555
▁때문에	-7.75589
메일	-7.76252
▁서버	-7.76924
PC	-7.77124
▁구글	-7.7716
M	-7.77392
요	-7.77503
▁지원	-7.77681
S	-7.7778
호	-7.78001
크	-7.78015
▁될	-7.7813
▁연	-7.78184
7	-7.78184
우	-7.78221
▁서비스를	-7.79236
D	-7.79283
▁기존	-7.79629
▁온라인	-7.79755
▁아	-7.80881
행	-7.81062
억원	-7.81098
방	-7.81134
마	-7.81427
▁분석	-7.81646
러	-7.81767
하며	-7.81943
니	-7.83027
부터	-7.83613
▁일부	-7.84311
▁없다	-7.84825
르	-7.85175
▁이미	-7.85229
▁사용	-7.85561
com	-7.85645
▁안	-7.86065
타	-7.86362
▁크게	-7.86428
경	-7.86528
9	-7.86986
점	-7.87094
▁수출	-7.87169
▁출시	-7.87353
▁모	-7.87923
▁솔루션	-7.87955
석	-7.88575
▁모두	-7.88696
▁하지만	-7.88931
▁12	-7.89091
▁내년	-7.89111
학	-7.89493
▁오	-7.90118
물	-7.90181
산업	-7.90243
▁중국	-7.90442
▁다양한	-7.90573
6	-7.90693
양	-7.90862
라는	-7.90917
▁두	-7.90942
하면	-7.90979
들	-7.9102
▁주요	-7.91054
모	-7.91123
▁총	-7.91555
i	-7.91566
▁재	-7.91654
▁물론	-7.92391
사업	-7.92666
▁무	-7.92791
s	-7.92943
▁의원	-7.93121
▁20	-7.93387
▁비해	-7.93592
▁비	-7.93934
▁제공	-7.94268
▁통합	-7.94291
▁예정이다	-7.944
감	-7.94413
TV	-7.94982
이라며	-7.95918
시장	-7.96103
▁신	-7.96445
태	-7.96617
▁한글	-7.96664
포	-7.97322
속	-7.97334
▁아니라	-7.97857
▁그는	-7.97861
출	-7.98127
▁추진	-7.98227
들을	-7.98537
지만	-7.98586
▁구	-7.98832
m	-7.98955
▁결과	-7.99384
시스템	-7.99543
▁노	-7.99698
▁있으며	-7.99744
▁있을	-7.99764
▁도입	-7.99784
▁메일	-7.99986
▁마련	-8.00032
P	-8.00053
T	-8.00265
▁오는	-8.00279
▁프로그램	-8.0049
정보	-8.00599
▁http	-8.00767
▁공	-8.0081
▁11	-8.01166
▁조	-8.0121
://	-8.01282
전자	-8.01364
▁서울	-8.01441
▁시스템	-8.01501
▁방침	-8.01508
▁공개	-8.01668
라고	-8.01988
려	-8.0209
▁공급	-8.0217
▁불	-8.0223
입	-8.02861
▁검색엔진	-8.02874
노	-8.03117
▁초	-8.03127
▁휴대폰	-8.03183
▁보	-8.03475
▁많은	-8.03901
B	-8.0441
▁정부	-8.04855
었다	-8.05385
▁정도	-8.05408
이라는	-8.06006
▁확대	-8.06133
▁이들	-8.06322
▁광고	-8.0668
민	-8.07008
넷	-8.07132
MS	-8.07336
▁지역	-8.0744
▁전문	-8.08114
▁기능을	-8.08579
▁최대	-8.09191
▁알려	-8.09204
으며	-8.09331
전자신문	-8.09357
▁국가	-8.09564
▁있도록	-8.09913
▁상	-8.10749
▁동	-8.11086
▁대학	-8.11229
▁보고	-8.11302
I	-8.11924
키로	-8.12445
작	-8.12946
▁전체	-8.12978
한다는	-8.1315
했으며	-8.13351
▁구축	-8.13364
10	-8.13557
▁자체	-8.14131
별	-8.14326
▁조사	-8.14419
강	-8.14565
▁올	-8.1488
▁것을	-8.15064
판	-8.15264
▁IBM	-8.15552
▁고객	-8.15683
▁성장	-8.15846
▁발	-8.16134
청	-8.1626
만원	-8.16402
기업	-8.16476
임	-8.16844
했던	-8.16939
▁관리	-8.16962
통	-8.17141
▁교수	-8.17482
▁약	-8.17526
터	-8.17606
▁소	-8.17626
▁리눅스	-8.17759
▁선	-8.17876
▁30	-8.1791
▁설립	-8.18134
▁각각	-8.18158
▁포	-8.18273
▁경쟁	-8.1838
▁각	-8.18564
▁기대	-8.18632
▁높은	-8.18743
▁LG	-8.18867
8	-8.19284
루	-8.19303
▁이같은	-8.1936
▁이와	-8.1952
▁예상	-8.19943
▁않고	-8.20606
▁남	-8.20789
각	-8.20935
음	-8.21172
▁마	-8.21676
▁당	-8.21687
▁15	-8.21866
▁더욱	-8.21873
▁모바일	-8.21888
분기	-8.22212
군	-8.22434
▁전략	-8.22582
▁문제	-8.22631
▁진행	-8.22817
씨	-8.22887
p	-8.23131
▁대상으로	-8.2335
▁줄	-8.23391
망	-8.23682
직	-8.23691
▁모든	-8.23815
초	-8.24447
▁2000	-8.2467
▁입	-8.24842
▁강	-8.24888
/	-8.25093
▁때문이다	-8.25199
▁제품을	-8.25521
론	-8.25669
력	-8.25675
N	-8.25715
▁된다	-8.25746
▁보인다	-8.25807
a	-8.25829
거	-8.26226
▁추가	-8.26724
▁운영	-8.26984
현	-8.27214
료	-8.27228
O	-8.27385
▁확보	-8.2742
건	-8.27442
티	-8.27514
t	-8.27627
심	-8.2764
▁실	-8.2768
▁단	-8.27731
데	-8.27744
업	-8.27793
▁정보를	-8.28172
생	-8.28503
▁사이트	-8.28711
약	-8.28835
승	-8.28936
▁평가	-8.29079
개발	-8.29609
달러	-8.29623
▁공동	-8.29769
▁발표	-8.29775
▁설명했다	-8.29916
▁전국	-8.30223
▁TV	-8.30295
지역	-8.30645
▁저	-8.3079
온	-8.30831
▁특허	-8.31103
XP	-8.31195
▁데이터	-8.31903
▁가격	-8.31913
▁마케팅	-8.32187
▁교육	-8.32276
▁노트북	-8.32283
엔	-8.32441
통신	-8.3249
▁증가	-8.32647
▁진출	-8.32697
▁야후	-8.32707
디	-8.32726
▁새	-8.32753
관리	-8.32801
20	-8.32941
▁매출	-8.33057
▁영화	-8.33105
▁알	-8.33106
▁없는	-8.33233
▁역시	-8.34064
▁차	-8.34207
▁기능	-8.34247
표	-8.34272
량	-8.34312
▁그동안	-8.34329
▁계속	-8.34727
▁기반	-8.34758
인터넷	-8.34761
▁법	-8.34886
▁해외	-8.34963
▁매	-8.35093
▁확산	-8.35458
▁적용	-8.36044
▁100	-8.36084
G	-8.3624
▁결정	-8.36307
반	-8.36321
SW	-8.36359
▁스팸메일	-8.36579
o	-8.36724
▁않은	-8.36913
R	-8.36984
▁다시	-8.37036
▁박	-8.37135
▁구성	-8.37338
▁바이러스	-8.37413
▁적극	-8.37481
▁강조	-8.37519
였다	-8.37611
▁설치	-8.37683
▁기록	-8.37736
린	-8.37789
▁최	-8.38041
▁갖고	-8.384
센터	-8.38432
∼	-8.39369
▁회사	-8.39644
컴	-8.3974
발	-8.39763
u	-8.39793
추	-8.39876
▁각종	-8.39976
등	-8.4025
되지	-8.40331
▁민주당	-8.40692
▁국제	-8.40799
▁시장을	-8.40831
인치	-8.40967
▁콘텐츠	-8.40971
증	-8.41161
▁스팸	-8.41392
▁중심으로	-8.41564
▁강화	-8.41601
스트	-8.41634
▁앞으로	-8.41685
환	-8.41966
검색	-8.41973
병	-8.41978
▁것이라고	-8.42272
▁있지만	-8.42274
▁일반	-8.42419
길	-8.42545
그	-8.42547
▁요구	-8.42659
▁생산	-8.42781
▁회사는	-8.42837
IT	-8.42894
▁산업	-8.4297
▁만큼	-8.42999
▁개인	-8.43096
설	-8.43121
▁인수	-8.43515
울	-8.43634
▁경	-8.43656
▁처리	-8.43767
▁시장에	-8.43804
처럼	-8.44014
▁기술을	-8.44025
프	-8.44106
달	-8.44349
코리아	-8.44564
▁다음	-8.45148
▁여	-8.45175
▁반면	-8.45456
▁대형	-8.45544
▁C	-8.45584
▁향후	-8.45944
▁나타났다	-8.46186
▁지난달	-8.46298
▁프로젝트	-8.46601
▁업계	-8.467
▁추	-8.46756
층	-8.46826
▁참여	-8.47198
측은	-8.47617
하기로	-8.47681
▁업체	-8.47891
서버	-8.48017
성을	-8.4807
본	-8.48147
21	-8.48204
▁않는	-8.48262
져	-8.48543
▁직접	-8.48648
F	-8.48803
b	-8.48833
율	-8.48874
▁볼	-8.49128
▁분	-8.49181
복	-8.49214
토	-8.49272
▁주장	-8.49305
램	-8.49478
▁해결	-8.4953
▁차세대	-8.49544
▁하	-8.49647
▁핵심	-8.49705
▁삼성전자	-8.49784
▁검찰	-8.49943
▁아직	-8.50189
창	-8.50258
▁게	-8.50261
위원회	-8.50631
▁마이크로소프트	-8.50884
버	-8.50987
업계	-8.51101
격	-8.51401
두	-8.51404
정부	-8.51669
50	-8.5187
브	-8.52008
▁않을	-8.52021
▁19	-8.52064
▁네트워크	-8.5207
준	-8.52155
피	-8.52242
▁시장에서	-8.52339
더	-8.52401
▁지적	-8.5255
k	-8.52679
테	-8.52796
▁달	-8.52833
▁따른	-8.52886
5%	-8.5291
▁사용자	-8.53009
립	-8.53011
후	-8.53104
▁첫	-8.53159
▁보도	-8.53296
▁31	-8.53341
▁벤처	-8.53535
했고	-8.53861
▁양	-8.53934
코	-8.53946
교	-8.5396
▁협력	-8.53992
▁타	-8.54237
액	-8.5441
철	-8.54424
▁점	-8.54889
▁전자	-8.54957
담	-8.54959
레	-8.55007
▁등록	-8.55082
래	-8.55083
측	-8.5554
▁예상된다	-8.55601
▁분야	-8.55604
▁상태	-8.56019
▁차단	-8.56124
들에게	-8.56252
으나	-8.56281
기자	-8.56354
락	-8.56381
▁삼성	-8.56518
북	-8.5659
한국	-8.5686
▁인식	-8.56893
▁경기	-8.56959
독	-8.57077
위를	-8.5731
y	-8.57312
▁우선	-8.57335
▁영업	-8.57404
▁온	-8.57422
▁예	-8.57615
▁최고	-8.57799
력을	-8.58087
▁2002/03/	-8.58212
]	-8.58218
▁개선	-8.58269
▁앞서	-8.58274
▁감	-8.58347
h	-8.58407
30	-8.58433
▁14	-8.58551
▁표준	-8.58639
결	-8.5899
▁영국	-8.59018
&	-8.59135
▁이런	-8.59285
c	-8.59308
만대	-8.59525
저	-8.59606
▁동안	-8.59885
제품	-8.60044
하도록	-8.60079
▁통신	-8.60084
까	-8.6018
2000	-8.60182
▁통한	-8.60368
▁거	-8.60512
▁있게	-8.60996
▁못	-8.612
▁이용	-8.61311
g	-8.61313
근	-8.61578
▁[	-8.62142
▁사장은	-8.62318
▁상승	-8.62399
항	-8.6245
책	-8.6248
▁진	-8.62696
11	-8.62798
았다	-8.62927
란	-8.63092
▁선정	-8.63103
▁비즈니스	-8.63188
분야	-8.63302
▁됐다	-8.63305
매	-8.63327
▁또한	-8.63354
▁가능성이	-8.63396
대로	-8.6358
함으로써	-8.63853
팀	-8.63906
닷컴	-8.64003
▁신규	-8.64029
▁후보	-8.64302
즈	-8.64508
▁편	-8.64568
규	-8.64698
▁SK	-8.64885
거나	-8.64965
역	-8.65017
▁무선	-8.65501
▁13	-8.65704
소프트	-8.65794
▁보이고	-8.65822
▁엔진	-8.66371
▁확인	-8.6639
외	-8.66404
▁구글의	-8.66453
▁배	-8.6666
▁집중	-8.66686
희	-8.66703
긴	-8.66782
▁맞	-8.66817
▁열	-8.6691
▁음성	-8.66928
기관	-8.67234
대학	-8.67316
▁들어	-8.67341
▁활용	-8.6737
▁피	-8.67592
▁반	-8.67805
▁비롯해	-8.67871
▁유럽	-8.67873
▁키워드	-8.68261
▁처음	-8.68432
▁정책	-8.68705
억달러	-8.68755
▁덧붙였다	-8.68806
가구	-8.68861
▁달리	-8.69037
예	-8.69111
향	-8.6933
▁소비자	-8.69404
▁17	-8.69449
백	-8.69628
▁실시	-8.69702
년간	-8.69717
▁심	-8.69746
▁2002/01/	-8.69825
▁SI	-8.70039
▁NHN	-8.7042
중이다	-8.70564
▁우	-8.71022
투	-8.71036
▁임	-8.71135
교육	-8.71303
▁창	-8.71479
▁실제	-8.71484
범	-8.71735
하거나	-8.71974
▁교수는	-8.72075
▁인력	-8.722
회사	-8.72298
단계	-8.725
컴퓨터	-8.72554
▁손	-8.72594
▁하나	-8.72615
d	-8.72695
▁이라크	-8.72699
▁사실	-8.72725
▁정보화	-8.72743
▁동영상	-8.72762
▁전용	-8.72776
▁채택	-8.72961
▁16	-8.7303
▁메모리	-8.73166
바	-8.73411
▁D	-8.73573
색	-8.73659
▁논의	-8.7371
▁대응	-8.7373
정책	-8.73856
▁50	-8.74172
▁사건	-8.74412
류	-8.74464
▁수준	-8.74538
품	-8.74628
▁커뮤니티	-8.74898
▁공무원	-8.74995
▁본	-8.7508
▁많이	-8.75089
12	-8.75198
▁단말기	-8.75294
중인	-8.75395
개월	-8.75548
▁`	-8.75585
업체들이	-8.75764
곳	-8.75807
▁업무	-8.75995
▁영	-8.76401
▁열린	-8.76473
▁취	-8.76538
▁벤처기업	-8.76652
▁제품은	-8.76824
변	-8.76928
언	-8.76967
▁제작	-8.76994
▁공격	-8.7711
든	-8.77213
키	-8.7743
▁주도	-8.77435
▁발전	-8.77965
▁기본	-8.78267
▁LCD	-8.78387
▁미국의	-8.78629
▁전환	-8.78656
날	-8.78697
▁지적했다	-8.78741
▁인텔	-8.7879
집	-8.78833
방식	-8.79146
합	-8.79159
▁구글은	-8.79284
일부터	-8.79335
▁자사	-8.7936
▁21	-8.79606
▁아이	-8.79701
▁사업을	-8.79807
▁평균	-8.79824
▁기간	-8.79843
▁번역	-8.79939
▁제공하는	-8.8003
되면서	-8.80081
남	-8.80276
열	-8.80421
▁구매	-8.80504
패	-8.80563
▁하반기	-8.80606
▁야후코리아	-8.80682
ang	-8.80709
▁KT	-8.80754
경기	-8.80772
업체인	-8.80795
황	-8.80797
▁생	-8.81098
▁필요한	-8.81121
l	-8.81137
▁데스크톱	-8.81174
▁PDA	-8.81349
로부터	-8.8139
▁제휴	-8.81456
▁기반으로	-8.81605
들과	-8.81925
친	-8.81931
▁업그레이드	-8.82188
▁파	-8.82338
▁정부는	-8.82434
▁저장	-8.82862
박	-8.82905
▁어느	-8.8295
▁않다	-8.82958
▁가량	-8.83181
네	-8.83192
▁경제	-8.83223
15	-8.83272
▁생각	-8.83484
난	-8.83617
▁대부분	-8.84055
▁보급	-8.8407
션	-8.84132
▁나섰다	-8.84135
▁있기	-8.84135
편	-8.84141
처	-8.8416
▁당시	-8.84418
▁업계의	-8.84459
▁것이라는	-8.84591
16	-8.84648
▁애플리케이션	-8.84659
▁탈당	-8.85162
▁예정	-8.85247
▁채	-8.85255
▁네티즌	-8.8528
폰	-8.85312
▁확정	-8.85355
▁회원	-8.85364
▁반도체	-8.85396
25	-8.85552
▁지식	-8.85556
60	-8.85596
▁접속	-8.85598
▁환경	-8.85639
평	-8.85694
들도	-8.85871
명의	-8.85871
▁등장	-8.85949
▁호	-8.85996
문제	-8.86058
▁걸	-8.86122
▁물	-8.86141
겨	-8.86458
▁데이터베이스	-8.8653
V	-8.86541
▁정도로	-8.86554
말	-8.86664
환경	-8.86809
▁파일	-8.86861
했지만	-8.87102
▁잘	-8.87159
▁이용자	-8.87262
▁관심을	-8.87264
만달러	-8.87416
200	-8.87427
▁판단	-8.87427
▁초기	-8.87475
▁자동	-8.87567
▁대만	-8.87599
▁전했다	-8.87768
목	-8.87855
▁수익	-8.87978
월부터	-8.88177
그룹	-8.88196
전략	-8.88204
▁주력	-8.88371
▁웜	-8.88496
▁어떤	-8.88614
워	-8.88794
이었다	-8.88816
▁정통부	-8.8892
▁이밖에	-8.88984
▁네이버	-8.88984
▁개최	-8.88991
~	-8.89047
▁쓰	-8.89337
▁보호	-8.89349
▁결과를	-8.8935
▁못하고	-8.89438
▁시작	-8.89487
▁최종	-8.89648
j	-8.89767
▁R	-8.89872
(1	-8.89951
▁준비	-8.8998
▁검토	-8.90254
▁않았다	-8.90391
▁우려	-8.90566
비트	-8.9063
▁공동으로	-8.90942
14	-8.91013
▁개발한	-8.91129
▁대상	-8.91146
릴	-8.9137
HP	-8.91405
익	-8.91423
령	-8.9148
▁부문	-8.91507
했으나	-8.9168
명이	-8.91698
E	-8.91973
사이트	-8.92064
되면	-8.92091
방송	-8.92165
▁아파트	-8.92241
▁바로	-8.92264
하지만	-8.92343
▁외	-8.92368
▁전문가	-8.92378
축	-8.92498
▁문서	-8.92684
씩	-8.92782
시켜	-8.92813
29	-8.92881
조사	-8.92934
▁순	-8.92995
▁사업자	-8.9307
▁시장이	-8.9324
▁수요	-8.93385
n	-8.93408
▁유통	-8.9353
솔루션	-8.93546
▁거래	-8.93577
▁사람	-8.93611
▁없이	-8.93655
▁방안을	-8.93771
투자	-8.93848
머	-8.94027
별로	-8.94035
했	-8.94082
▁표준화	-8.9427
▁가능한	-8.94345
▁이번에	-8.94452
▁25	-8.94578
되기	-8.9463
▁업체들이	-8.9473
▁규모	-8.94772
▁1000	-8.94799
▁연결	-8.94996
처리	-8.95034
인력	-8.95087
▁공략	-8.95181
은행	-8.95253
▁이제	-8.95257
너	-8.95354
李	-8.95395
▁뿐	-8.95459
▁여러	-8.95469
▁작년	-8.95557
미국	-8.95703
▁처음으로	-8.95898
▁DVD	-8.96005
in	-8.96088
▁점에서	-8.9614
▁변	-8.96474
▁본격	-8.96483
▁대기업	-8.96489
연구소	-8.96531
께	-8.96677
광	-8.9668
▁방식	-8.96722
텍	-8.96728
▁아닌	-8.96733
▁전세계	-8.96763
▁구현	-8.96806
▁관심이	-8.9691
r	-8.9713
▁국민	-8.97325
▁나서고	-8.97361
▁막	-8.97384
명을	-8.9748
▁거의	-8.97719
채	-8.97731
관계	-8.97994
▁투입	-8.98098
▁발송	-8.98103
▁발생	-8.98147
▁가입자	-8.98166
▁강력한	-8.98195
▁국회	-8.98199
▁기반의	-8.98224
는데	-8.98239
분의	-8.98296
▁기관	-8.98301
▁버전	-8.98648
▁방문	-8.9879
oo	-8.98844
문화	-8.98845
▁문제가	-8.98893
▁이용해	-8.98895
▁상품	-8.99075
갈	-8.9921
18	-8.99216
지원	-8.99401
▁만들어	-8.99437
f	-8.99448
▁프로세서	-8.99451
▁불구하고	-8.99452
▁주가	-8.99466
▁16:	-8.9954
▁이상의	-8.99559
게임	-8.99616
▁특정	-8.99788
구글	-8.99865
19	-8.9987
사회	-8.99879
억원의	-9.00169
업체들은	-9.00452
▁속	-9.00485
제도	-9.00615
거래	-9.00673
▁높다	-9.0084
▁찾아	-9.0084
카드	-9.00861
▁포함	-9.00989
▁불법	-9.0099
순	-9.01056
▁아니다	-9.01091
▁원하는	-9.01301
▁공유	-9.01355
▁음성인식	-9.01379
▁의미	-9.01475
▁단계	-9.01724
▁고려	-9.018
올	-9.01924
폭	-9.01927
▁것도	-9.01955
W	-9.0202
▁우리나라	-9.02178
▁불과	-9.02203
카	-9.02222
▁코스닥	-9.02248
▁문화	-9.02561
▁역할을	-9.027
▁모델	-9.0299
▁의원은	-9.03025
▁성공	-9.03067
점을	-9.03188
▁외국	-9.03398
택	-9.03407
▁받고	-9.03517
렸다	-9.03588
▁나설	-9.03693
▁신협	-9.03712
▁정보통신	-9.03732
▁오후	-9.03742
함	-9.03883
▁대폭	-9.04237
▁폭	-9.04338
텔레콤	-9.04367
▁분야에서	-9.0437
▁합의	-9.04384
▁오피스	-9.0439
▁유지	-9.04417
▁본사	-9.04422
▁무료	-9.04662
500	-9.0469
▁시스템을	-9.04823
해서	-9.04838
▁18	-9.0494
▁입장을	-9.04983
▁단일화	-9.05062
▁실적	-9.05159
▁국산	-9.05198
▁본격적인	-9.05204
▁구입	-9.05233
▁예산	-9.05241
절	-9.0525
▁성능	-9.05255
퍼	-9.05261
▁교	-9.05348
▁우리	-9.05352
▁시작했다	-9.05498
▁자금	-9.055
▁중단	-9.0555
레이	-9.05554
▁경영	-9.05735
▁정치	-9.05761
▁않는다	-9.05805
권을	-9.06064
▁나서	-9.06178
▁방법	-9.06223
▁문제를	-9.06343
▁글로벌	-9.06438
▁러시아	-9.06516
08	-9.06563
슨	-9.06597
▁육성	-9.06597
▁전자상거래	-9.06597
▁체첸	-9.06597
▁회복	-9.06602
▁운용체계	-9.06608
▁대해서는	-9.0661
▁위해서는	-9.06614
▁애	-9.06718
▁장비	-9.06782
▁입장	-9.06817
▁동시에	-9.07007
▁유치	-9.07028
▁이용한	-9.07459
기반	-9.07536
▁영향을	-9.07619
▁변화	-9.07651
▁S	-9.07692
라며	-9.07746
▁날	-9.07968
▁잇따라	-9.08089
▁월드컵	-9.08089
▁넘	-9.082
▁공식	-9.08258
▁시행	-9.08288
▁규모의	-9.08335
정보통신	-9.08345
여개	-9.08424
L	-9.08444
홍	-9.0845
하자	-9.08518
▁멀티미디어	-9.08693
▁노력	-9.08768
▁도메인	-9.08781
▁설명	-9.08851
▁300	-9.08956
ung	-9.09087
▁대통령	-9.09149
26	-9.09194
▁지원하는	-9.09372
▁내용을	-9.09432
▁종합	-9.09464
▁상황	-9.09587
▁솔루션을	-9.09598
뜨	-9.09604
▁있고	-9.09604
▁결국	-9.09642
▁대규모	-9.09665
규모	-9.09702
▁주소	-9.09704
▁보여	-9.0977
▁내부	-9.09826
▁추세	-9.09859
▁사례	-9.09936
불	-9.09945
봉	-9.09963
김	-9.09977
▁내용	-9.09985
IBM	-9.09985
▁구글이	-9.09999
▁관련업계에	-9.10259
▁제시	-9.10336
▁펜티엄	-9.10401
▁점을	-9.1042
▁DB	-9.10572
▁40	-9.10595
▁P	-9.10596
▁대부분의	-9.10604
▁데이터를	-9.1062
▁풀이	-9.10661
▁엠파스	-9.10682
1%	-9.10696
▁살	-9.10767
▁비용	-9.10963
▁방	-9.10975
림	-9.10979
▁남북	-9.10991
▁전문가들은	-9.11043
▁바이오	-9.11138
▁않아	-9.11143
▁테스트	-9.11145
▁담당	-9.11152
▁거쳐	-9.11158
▁지금	-9.11169
▁웹사이트	-9.11206
▁제품이	-9.11277
▁사실상	-9.11315
메	-9.11379
▁개발자	-9.11445
해온	-9.11518
▁홍	-9.11566
▁현대	-9.11663
▁주택	-9.11763
▁제기	-9.11817
▁이달	-9.11851
DB	-9.11853
▁64	-9.12088
없이	-9.12112
협	-9.12147
▁기준	-9.12279
겠다	-9.12312
▁M	-9.12408
▁대비	-9.12503
▁전송	-9.12511
▁2002/02/	-9.12629
▁정부가	-9.12634
▁특징	-9.12708
▁파악	-9.1272
▁하루	-9.12765
▁잡	-9.12787
▁개인정보	-9.12861
▁CRM	-9.12865
▁들	-9.12873
회의	-9.12908
억원을	-9.12956
진다	-9.1304
▁부분	-9.13044
▁주장했다	-9.13224
커	-9.13242
밀	-9.13247
▁관한	-9.13297
보다는	-9.13358
▁정상	-9.1343
돌	-9.13723
▁받은	-9.13818
▁때문	-9.13979
▁기업의	-9.14237
블	-9.1426
▁바탕으로	-9.14293
▁여전히	-9.14293
▁없어	-9.14296
▁없을	-9.14322
▁선택	-9.14331
▁하락	-9.14334
40	-9.14348
아이	-9.14354
이번	-9.14367
▁지금까지	-9.14385
▁매우	-9.1439
▁일정	-9.14553
하던	-9.14641
▁코	-9.14662
▁방송	-9.14884
▁시도	-9.15007
▁라이선스	-9.15035
▁삼	-9.15058
on	-9.15113
▁컴포넌트	-9.15214
▁지정	-9.15309
▁T	-9.15373
▁XML	-9.15423
세계	-9.15429
▁해당	-9.15693
탄	-9.15857
낼	-9.15868
쪽	-9.15883
▁왔다	-9.15906
▁좋은	-9.15906
팩	-9.15906
▁패키지	-9.15906
플레이어	-9.15957
▁당초	-9.15985
▁제대로	-9.15997
▁북한	-9.16035
▁사용자가	-9.1618
▁통	-9.16235
▁장점	-9.16241
▁반대	-9.16289
▁자사의	-9.16428
체제	-9.16548
년대	-9.16623
X	-9.16625
▁99	-9.16945
24	-9.1701
▁목표	-9.17011
▁시장의	-9.1704
▁업체는	-9.17252
7%	-9.17269
28	-9.1741
광고	-9.17435
▁허	-9.17502
?	-9.1754
▁놓고	-9.17545
▁먼저	-9.17546
▁향상	-9.17556
▁가지고	-9.17563
5000	-9.17637
▁검색광고	-9.17675
▁따라서	-9.17693
▁치료	-9.17862
▁언어	-9.17935
en	-9.18131
▁포함한	-9.18287
년까지	-9.18417
취	-9.18469
하겠다는	-9.18728
업체들의	-9.18864
▁30%	-9.18925
▁인기	-9.1902
▁감소	-9.19068
▁24	-9.19068
U	-9.19083
er	-9.19089
플	-9.19181
시장에서	-9.19187
퇴	-9.1919
곡	-9.19208
▁쉽게	-9.19212
▁2004	-9.19312
▁다소	-9.19361
업체들	-9.19427
▁업체들은	-9.19567
▁오전	-9.19609
▁제한	-9.19878
▁업체가	-9.20022
100	-9.20199
관련	-9.20325
23	-9.20327
▁사회	-9.20374
▁전화	-9.20376
▁2003	-9.20549
▁사용할	-9.20608
▁HP	-9.20625
▁관	-9.20654
되며	-9.20775
▁빠른	-9.20911
▁그리고	-9.20917
▁백신	-9.20952
차례	-9.2102
협회	-9.21029
▁거부	-9.21106
▁분야의	-9.21128
H	-9.21165
▁있는데	-9.21179
▁경쟁이	-9.21201
▁형태로	-9.21254
▁윤	-9.21571
▁발표했다	-9.21587
▁역	-9.21591
▁애플	-9.21706
▁관계	-9.21713
으로부터	-9.21723
▁이처럼	-9.21824
▁프로그램을	-9.21937
총	-9.21983
13	-9.22017
비즈니스	-9.22095
른	-9.22182
▁받아	-9.2226
▁인정	-9.22485
▁밝혀	-9.22586
념	-9.22606
▁있으나	-9.22631
▁선보일	-9.22632
▁맞춰	-9.22633
▁금융	-9.22636
윈도	-9.2264
▁다음달	-9.22679
씨는	-9.22698
▁여기에	-9.22794
증권	-9.22822
세대	-9.22868
▁정보기술	-9.2297
▁시작한	-9.23005
베	-9.23138
연구원	-9.23147
한다고	-9.23158
시키는	-9.23235
17	-9.2337
▁계약	-9.23433
▁청소년	-9.23539
400	-9.23647
뿐	-9.23705
탈	-9.23815
▁증	-9.23819
▁지지	-9.23995
OS	-9.24045
서비스를	-9.24102
▁오라클	-9.24185
▁자신	-9.24213
대회	-9.24241
▁오픈	-9.24301
찬	-9.24369
▁제휴를	-9.24382
▁교체	-9.24452
▁국	-9.24453
▁상용화	-9.24456
▁인터넷전화	-9.24465
▁비롯한	-9.24568
▁10%	-9.24631
800	-9.2487
가격	-9.24911
▁끝	-9.24924
이어서	-9.24993
0	-9.25121
▁A	-9.25194
▁AMD	-9.25201
▁구조조정	-9.25411
600	-9.25479
최	-9.25666
▁활동	-9.25712
야후	-9.25904
▁광	-9.2595
02	-9.26006
츠	-9.2617
▁슈퍼컴퓨터	-9.26171
▁위협	-9.26178
▁완료	-9.26194
▁경찰	-9.26224
▁2001	-9.26255
▁대신	-9.26486
▁부상	-9.26546
▁직	-9.26754
망을	-9.26775
▁한다는	-9.26796
기간	-9.26943
K	-9.27157
▁행사	-9.27175
자금	-9.27203
▁HDD	-9.27223
▁업체인	-9.27249
▁음악	-9.27397
베이	-9.27454
연구	-9.27599
▁받는	-9.27613
▁활성화	-9.27643
▁200	-9.27716
▁난	-9.27812
70	-9.27893
현재	-9.27923
▁2001/12/	-9.27959
▁책임	-9.27966
金	-9.27987
▁있었다	-9.27989
▁요청	-9.27996
▁이러한	-9.27998
▁선보였	-9.28002
▁유닉스	-9.28004
▁접근	-9.28006
▁2005	-9.28075
▁50%	-9.28087
▁전략을	-9.28266
▁상반기	-9.2828
마다	-9.28334
▁풀	-9.28369
80	-9.28386
x	-9.28614
▁은행	-9.28656
▁작업	-9.28748
장비	-9.28784
▁의해	-9.28989
▁방안	-9.29002
▁가진	-9.29057
▁시장은	-9.29188
세기	-9.29207
만명	-9.29265
▁사장	-9.29311
대상	-9.29315
▁가격이	-9.29352
▁민간	-9.29358
▁새로	-9.29404
4%	-9.29416
공학	-9.29658
착	-9.29706
새	-9.29763
판매	-9.29779
덕	-9.29841
▁이동통신	-9.29859
▁가능하다	-9.29876
▁DBMS	-9.29881
▁무선인터넷	-9.29887
번	-9.29892
05	-9.29899
테크	-9.29932
▁점차	-9.2995
▁부담	-9.29966
▁구조	-9.30144
▁병원	-9.30182
▁주식	-9.30213
▁제품의	-9.30216
▁제안	-9.30316
▁하드웨어	-9.30358
▁민	-9.30437
▁인해	-9.30824
▁탑재	-9.30856
▁정보보호	-9.30967
여명	-9.31076
년부터	-9.31339
▁비교	-9.31358
▁상황이	-9.314
▁합병	-9.31414
▁자신의	-9.31423
▁매출을	-9.31488
▁수정	-9.31529
했을	-9.3153
▁형성	-9.31576
포털	-9.31582
활	-9.31602
소프트웨어	-9.31695
째	-9.31702
시킨	-9.31728
▁브라우저	-9.31728
숙	-9.31728
▁퇴출	-9.3173
▁결합	-9.31744
▁관련해	-9.31815
받	-9.31847
▁현실	-9.3201
▁총리	-9.32168
2.0	-9.32168
▁플랫폼	-9.32209
▁영향	-9.32362
▁대책	-9.32738
▁골	-9.32746
송	-9.3278
▁필요	-9.32807
▁포기	-9.3302
▁인기를	-9.3306
700	-9.3313
효	-9.33139
줄	-9.33214
▁핵	-9.3331
▁학교	-9.33356
▁과제	-9.3336
▁아시아	-9.33426
▁검사	-9.33619
▁한나라당	-9.33651
프라	-9.33707
하겠다	-9.33714
▁2.0	-9.33737
22	-9.33777
▁신청	-9.3378
▁독자	-9.33835
▁현	-9.33896
▁별	-9.34097
▁농	-9.34151
보안	-9.34177
55	-9.34202
사업자	-9.34245
웨이	-9.34261
▁소프트웨어를	-9.34446
an	-9.34557
▁중요한	-9.34566
▁조성	-9.3462
▁28	-9.34962
▁곳	-9.35153
행위	-9.35194
▁보유	-9.35314
▁정부의	-9.35413
산업의	-9.35433
악	-9.35534
콘	-9.35611
▁끌어	-9.35612
▁계기로	-9.35612
▁너무	-9.35616
▁테러	-9.35629
▁연구개발	-9.35658
▁유엔	-9.35764
▁한번	-9.35786
▁올라	-9.35854
업체의	-9.35926
39	-9.36033
▁메	-9.36173
▁방식으로	-9.36195
▁넘어	-9.36238
▁90	-9.36365
도록	-9.36407
▁후보단일화	-9.36453
▁여부	-9.36473
▁수립	-9.36652
▁업체들의	-9.36696
▁두고	-9.36708
일본	-9.3671
▁곧	-9.36725
▁보내	-9.36863
▁V	-9.36883
06	-9.36911
학과	-9.36925
▁결	-9.36974
▁추진하고	-9.36982
▁기술이	-9.37069
▁참가	-9.37087
름	-9.3713
▁규정	-9.37273
물을	-9.37288
▁메디슨	-9.37612
▁비디오	-9.37629
봤다	-9.37654
▁매각	-9.37691
▁청	-9.37699
or	-9.37769
▁대거	-9.37791
교류	-9.37796
▁본격화	-9.3781
때	-9.37818
시장을	-9.38027
▁인터페이스	-9.38172
▁현지	-9.3821
안을	-9.38276
▁PDP	-9.38295
03	-9.38345
▁누	-9.38347
한글	-9.38407
EC	-9.38431
거리	-9.38439
▁인물	-9.38442
▁B	-9.38632
▁실제로	-9.38675
▁마이크론	-9.38682
▁터	-9.38907
▁늘	-9.38921
▁특별	-9.38938
▁인한	-9.3905
▁브랜드	-9.39092
▁29	-9.39107
▁장착	-9.39176
겠다는	-9.39233
▁사진	-9.39264
▁폐	-9.39341
▁수입	-9.39394
이지만	-9.39395
부장	-9.39438
으면	-9.39503
▁접	-9.39503
▁협의	-9.39513
▁개정	-9.39582
▁부족	-9.39589
▁대체	-9.39646
▁많다	-9.39652
▁어떻게	-9.39652
▁만드는	-9.39658
▁나갈	-9.39666
▁디지털카메라	-9.39667
토록	-9.3967
▁K	-9.39706
후보	-9.39729
▁배경	-9.39747
▁보였다	-9.39754
▁협상	-9.39781
페	-9.39819
▁외부	-9.39826
56	-9.3983
잡	-9.39937
▁26	-9.39941
▁효과	-9.40015
09	-9.40089
미디어	-9.40114
▁사용하는	-9.40304
조원	-9.40314
▁제도	-9.40658
체계	-9.40842
▁ID	-9.40928
▁발표한	-9.41001
▁책임을	-9.41174
▁사이트를	-9.41188
▁설계	-9.41277
함에	-9.41289
국가	-9.41354
험	-9.41368
▁시각	-9.41435
▁받을	-9.41464
쳐	-9.41615
▁연계	-9.41626
▁코드	-9.41686
널	-9.41689
콜	-9.41704
값	-9.41727
▁바둑	-9.41738
▁위험	-9.41742
▁급증	-9.41745
▁돌입	-9.41758
해주는	-9.41823
▁미래	-9.41849
▁국어	-9.41922
우리	-9.41952
시장의	-9.41973
월말	-9.41996
▁서울시	-9.421
▁27	-9.42155
∼1	-9.42209
▁메일을	-9.42274
디지털	-9.42364
낸	-9.42451
▁완	-9.42501
▁이용할	-9.42585
▁길	-9.4269
▁백	-9.42792
ar	-9.42816
실적	-9.42924
▁중소기업	-9.42959
▁여부를	-9.43012
▁아니	-9.43033
▁피해	-9.4314
v	-9.4326
▁SD	-9.43336
▁중요	-9.43342
았	-9.43384
▁이들은	-9.43433
0%	-9.43522
기구	-9.43606
방안	-9.43634
▁사망	-9.4366
▁쇼핑몰	-9.43755
▁2002/04/	-9.43855
ᆞ	-9.43863
테크놀로지	-9.43863
GHz	-9.43863
▁업데이트	-9.43863
▁침해	-9.43863
▁조만간	-9.43864
▁선보인	-9.43868
▁위반	-9.43881
▁주목된다	-9.43918
▁홍보	-9.43966
3%	-9.43973
▁본격적으로	-9.43977
▁허용	-9.44018
07	-9.4402
▁화면	-9.44026
번호	-9.44066
▁지급	-9.44066
▁송	-9.44068
48	-9.4409
▁선거	-9.44111
▁내년부터	-9.44116
▁영상	-9.44138
▁표	-9.44156
▁경선	-9.44158
▁m	-9.44176
▁의사	-9.44281
▁성인	-9.44286
▁OS	-9.44414
쓰	-9.44498
▁소개	-9.44555
물량	-9.44577
▁대선	-9.44601
극	-9.44634
▁가상	-9.44705
▁양성	-9.44717
▁조합	-9.44726
▁필요하다	-9.44738
▁모니터	-9.44779
▁기업용	-9.44813
▁이름	-9.45128
▁조직	-9.45181
경제	-9.45392
▁높아	-9.45411
▁시험	-9.45446
▁시기	-9.45593
▁해도	-9.45655
2%	-9.45681
NT	-9.45908
▁22	-9.45911
칭	-9.46018
왕	-9.46033
▁갖춘	-9.46037
▁내놓고	-9.46037
▁전쟁	-9.46037
현지시각	-9.46042
▁절반	-9.46052
▁차원에서	-9.46065
▁반발	-9.46092
시킬	-9.46115
▁모색	-9.4612
▁맡	-9.46154
▁공공	-9.46232
▁키	-9.46404
▁관심	-9.46416
년에는	-9.46478
▁평	-9.46559
▁문	-9.46575
▁중소	-9.46661
SI	-9.46694
▁이하	-9.4676
▁유지보수	-9.46782
견	-9.46932
볼	-9.46964
▁신제품	-9.46988
▁빚	-9.47072
차원	-9.47107
▁삼성전자는	-9.47291
▁캐릭터	-9.47325
▁F	-9.47349
04	-9.47448
윈	-9.47548
38	-9.47627
률	-9.47783
▁수요가	-9.47852
일까지	-9.47883
▁직원	-9.47963
▁체결	-9.47984
▁2002	-9.48024
▁사람들	-9.48026
▁도시	-9.48085
계획	-9.48118
득	-9.48218
슬	-9.48258
▁마무리	-9.4826
▁언론	-9.48263
▁스토리지	-9.48266
net	-9.48266
▁규제	-9.48275
CA	-9.48286
▁만든	-9.48289
속도	-9.48316
▁우승	-9.48319
▁건	-9.48326
43	-9.48526
▁학생	-9.48537
▁20%	-9.48561
▁이미지	-9.48589
▁아이테니엄	-9.48607
▁선점	-9.48641
되	-9.48645
▁속도	-9.4866
▁감독	-9.4868
▁CEO	-9.48694
▁부산	-9.4879
경쟁	-9.48816
▁적지	-9.48825
▁사실을	-9.48856
▁구글과	-9.48863
▁여성	-9.48944
▁프린터	-9.49021
▁세계적인	-9.49135
▁출	-9.4924
골	-9.49315
단체	-9.49332
▁제출	-9.49333
▁프랑스	-9.49437
▁피해를	-9.49493
력이	-9.4965
▁분야에	-9.49825
▁조치	-9.49867
▁시대	-9.49907
▁답	-9.49948
데다	-9.50042
족	-9.50244
정보화	-9.50362
45	-9.50445
▁페이지	-9.50532
엘	-9.50532
▁나머지	-9.50532
▁디자인	-9.50533
▁스스로	-9.50534
▁삭제	-9.50534
느냐	-9.50537
▁해킹	-9.50545
▁초고속인터넷	-9.50551
▁파업	-9.50593
▁속속	-9.50601
▁전혀	-9.50646
드림	-9.50649
▁크기	-9.50659
▁대량	-9.50725
▁채용	-9.50763
▁주민	-9.50807
▁80	-9.50855
▁전반	-9.50855
▁아웃소싱	-9.50978
확	-9.51016
▁즐	-9.51029
들에	-9.51099
법인	-9.5121
▁업계에	-9.51214
▁의견을	-9.5128
▁반영	-9.51317
▁선진국	-9.51331
▁집	-9.51363
▁DDR	-9.51453
31	-9.51471
북한	-9.51476
완	-9.51506
필	-9.51721
▁업체와	-9.51732
웹	-9.51805
%)	-9.51815
▁대화	-9.51816
해졌다	-9.51925
몰	-9.51935
▁되	-9.52037
49	-9.52072
57	-9.52079
▁가능	-9.5221
텔	-9.52285
▁진영	-9.52293
▁시점	-9.52335
▁제품에	-9.52372
42	-9.52425
▁담	-9.52506
검	-9.52507
▁넘는	-9.52561
▁500	-9.52619
록	-9.52637
▁기능이	-9.52669
▁판	-9.52736
비용	-9.5275
메일을	-9.52761
습	-9.52814
냐	-9.52852
였던	-9.52857
▁차별화	-9.52858
▁키보드	-9.52858
▁주기판	-9.52877
▁들어가	-9.52913
▁독일	-9.52913
▁출신	-9.52925
▁2007	-9.52957
▁주목	-9.53
▁17:	-9.53019
▁나오	-9.53023
▁대변인은	-9.53026
▁보면	-9.53149
시키고	-9.53165
▁고급	-9.53177
▁상당한	-9.53204
▁유도	-9.53321
▁제조	-9.53384
▁제외한	-9.53386
프리	-9.53425
▁98	-9.5343
사항	-9.53455
re	-9.5366
▁중앙	-9.53671
SO	-9.53726
▁연장	-9.53726
▁채널	-9.53787
▁자료	-9.53842
▁방지	-9.5386
▁성과를	-9.53895
▁내장	-9.53944
▁내려	-9.54162
이란	-9.54398
버전	-9.54545
▁확장	-9.5487
▁포함해	-9.54872
47	-9.54954
▁받았다	-9.54969
6%	-9.54971
▁발견	-9.55064
압	-9.55156
쉬	-9.55236
컬	-9.55239
▁같이	-9.55239
▁오히려	-9.55239
▁CPU	-9.55239
▁머물	-9.55243
▁원칙	-9.55244
▁돌아	-9.55267
jb	-9.55279
▁방식을	-9.55286
▁지속적으로	-9.55293
▁구체적인	-9.5531
▁회사의	-9.55333
▁배포	-9.55339
▁신설	-9.55355
▁일단	-9.55388
위원장	-9.55445
▁◆	-9.55465
▁유전자	-9.5549
▁대표적인	-9.55491
▁국내외	-9.55535
▁파워	-9.55587
▁근	-9.55653
▁연내	-9.55676
▁앞	-9.55855
업계의	-9.55931
▁제정	-9.56058
글	-9.5608
▁군	-9.56098
▁중심	-9.56124
▁합	-9.56163
▁사이	-9.56258
▁효과를	-9.56282
시대	-9.56303
▁제공한다	-9.56495
윤	-9.56725
▁극	-9.56753
금을	-9.56785
▁감염	-9.5682
▁최고의	-9.5683
하기도	-9.56893
▁달라	-9.56941
▁제공하고	-9.56978
▁선보이	-9.5698
▁법적	-9.57004
▁예고	-9.57204
▁G	-9.57229
▁조기	-9.57292
▁건설	-9.57297
흥	-9.57381
올해	-9.57449
기술을	-9.57452
▁서버를	-9.5753
▁북한의	-9.57578
▁장관	-9.57612
훈	-9.57624
▁법률	-9.57658
▁연말	-9.57677
」	-9.57678
▁CDRW	-9.5768
▁개방	-9.57735
▁오른	-9.57736
▁유료	-9.57745
▁정통부는	-9.57806
▁벌어	-9.57808
▁0.	-9.57852
▁발행	-9.57854
구역	-9.57877
▁해소	-9.5788
▁W	-9.57884
▁증시	-9.57884
▁문제는	-9.57885
결과	-9.57885
▁그대로	-9.57906
자들은	-9.58032
▁어려움을	-9.58064
시장이	-9.58104
▁관계자	-9.58113
▁사이버	-9.58175
▁CD	-9.58261
세포	-9.58278
▁팔	-9.58363
▁색	-9.58391
▁이유	-9.58417
▁상황에서	-9.58493
프로	-9.58534
시장에	-9.58558
▁만들	-9.58564
▁인하	-9.586
르고	-9.58603
▁무료로	-9.58612
만원대	-9.58646
▁다음커뮤니케이션	-9.58674
▁내년에는	-9.58788
스타	-9.58862
하는데	-9.58927
▁시리즈	-9.59018
등록	-9.59057
중국	-9.59121
벤처	-9.59232
▁커	-9.59263
클	-9.59276
▁집단	-9.59367
▁관련된	-9.59374
▁ASP	-9.59457
풍	-9.59459
포인트	-9.59476
▁자바	-9.59596
계약	-9.59688
33	-9.59857
MB	-9.59902
사업에	-9.59948
▁순위	-9.60019
염	-9.60115
▁휴	-9.60118
칠	-9.60121
엄	-9.60167
▁블루투스	-9.60178
▁한국시리즈	-9.60203
겠지만	-9.60203
▁돌파	-9.60212
▁외신	-9.60286
▁서치	-9.60294
▁올리	-9.60314
▁내달	-9.60357
▁실험	-9.60391
▁사상	-9.60416
▁전원	-9.60488
▁상대	-9.60501
%),	-9.60524
▁김영	-9.60526
▁열어	-9.60536
▁연간	-9.60722
▁컨설팅	-9.60731
▁북측	-9.60776
▁가동	-9.60804
▁공세	-9.60825
▁통일	-9.60831
▁자리를	-9.6088
▁목표로	-9.61023
▁이익	-9.6103
▁대회	-9.61035
▁저작권	-9.61048
▁소스	-9.61076
▁통과	-9.61084
▁수준으로	-9.61089
▁활용할	-9.61106
▁기록했다	-9.61126
▁조건	-9.61148
CP	-9.61449
▁칩	-9.61535
▁이유는	-9.61568
▁이메일	-9.61577
▁연가	-9.61613
▁32	-9.61708
▁사람이	-9.6173
수요	-9.61815
보호	-9.61836
▁이전	-9.61898
▁기업들이	-9.61923
▁황	-9.62072
포럼	-9.62131
금융	-9.6219
▁이동	-9.62199
런	-9.62221
LG	-9.62225
계획을	-9.62326
▁위치	-9.62339
▁작용	-9.62395
▁야후는	-9.62427
▁카	-9.62431
람	-9.62447
▁기업이	-9.62576
혀	-9.62614
움	-9.62691
MHz	-9.62742
▁이뤄지	-9.62742
▁홈페이지	-9.62742
됐으며	-9.62742
됨	-9.62742
헌	-9.62742
▁최초로	-9.62742
▁이동전화	-9.62744
▁검색어	-9.62748
▁출범	-9.62766
▁의혹	-9.62803
▁전면	-9.6283
▁2006	-9.62848
▁참석	-9.62905
▁소속	-9.62907
▁기대된다	-9.63
▁기술개발	-9.63038
▁영어	-9.63125
▁전달	-9.63164
부문	-9.63166
▁용량	-9.63202
사건	-9.63256
▁과정에서	-9.63267
▁내다	-9.63348
▁전망된다	-9.6336
▁못했다	-9.63502
▁프로	-9.63582
▁바람	-9.63588
하려는	-9.63607
▁맞는	-9.63617
▁공공기관	-9.63645
▁따	-9.63953
국내	-9.63959
▁영역	-9.64026
라도	-9.6419
▁밀	-9.64241
평가	-9.64333
▁진단	-9.64748
▁혼	-9.64798
▁성과	-9.6486
최근	-9.64992
▁자동차	-9.65018
감독	-9.65037
앞으로	-9.65082
▁비용을	-9.65084
▁검찰은	-9.65087
린다	-9.65102
케이블	-9.65149
▁가격을	-9.65271
▁모델을	-9.65284
언어	-9.653
▁숨	-9.65316
▁같다	-9.65373
▁비슷한	-9.65373
▁훨씬	-9.65373
▁목소리	-9.65374
라운드	-9.65374
▁현상	-9.65377
▁언급	-9.65382
▁대용량	-9.65405
▁상대적으로	-9.65448
워크	-9.65464
▁선두	-9.65479
▁주로	-9.65488
▁과거	-9.6549
▁완성	-9.65562
▁표시	-9.65564
▁케이블	-9.65605
▁양산	-9.65608
▁최근에는	-9.65679
▁빈	-9.65721
▁기자	-9.65721
▁위기	-9.65745
▁인상	-9.65839
▁한층	-9.65924
▁셈	-9.6595
▁형태	-9.66033
▁400	-9.66146
▁자동으로	-9.66215
▁특	-9.66266
▁나가	-9.66381
▁작업을	-9.66414
▁프로젝트를	-9.66488
▁돈을	-9.66608
▁되면	-9.66622
과학	-9.66736
▁벌	-9.66752
98	-9.66753
음을	-9.66953
▁IP	-9.66954
하여	-9.66968
▁패	-9.67216
00	-9.67333
ic	-9.67378
▁주소를	-9.67464
▁출시할	-9.67561
▁비스타	-9.67579
례	-9.6758
▁힘	-9.67732
▁예금	-9.67743
손	-9.67743
리눅스	-9.67799
CRM	-9.67799
애	-9.67813
국어	-9.67929
▁경고	-9.67982
센	-9.67992
링	-9.67993
욕	-9.68076
▁갖추고	-9.68076
▁검찰총장	-9.68076
▁스패머	-9.68076
▁이렇게	-9.68076
촌	-9.68076
▁서울대	-9.68076
▁응답	-9.6808
▁집계	-9.68083
▁파견	-9.68098
▁표현	-9.68116
▁빠르게	-9.68125
▁예측	-9.68138
시설	-9.68207
▁배치	-9.68379
▁군사	-9.68418
▁MP	-9.68449
업체가	-9.68519
▁철	-9.68524
▁실정	-9.68589
라면	-9.68623
▁이유로	-9.68699
▁도전	-9.68728
돼야	-9.68808
▁빌	-9.68814
▁과학기술	-9.68826
▁창업	-9.68897
전문	-9.68962
▁몰	-9.69017
▁글	-9.69036
인데	-9.69103
▁수준의	-9.69129
시스템을	-9.69188
▁신기술	-9.69245
▁레	-9.69257
요금	-9.69258
집회	-9.69264
인증	-9.69462
업체들과	-9.69498
▁뉴스	-9.69499
▁신고	-9.69514
▁콘텐츠를	-9.6953
▁직원들	-9.69537
IC	-9.69601
▁허가	-9.69794
▁디	-9.69877
36	-9.70026
▁열고	-9.70097
▁생활	-9.70189
술	-9.70281
▁계약을	-9.70296
▁북한이	-9.70317
응	-9.70419
원장	-9.70446
살	-9.70553
▁수행	-9.70654
▁업체의	-9.70685
모바일	-9.70755
그러나	-9.7076
‘	-9.70764
▁시범	-9.70803
딩	-9.70821
▁2001/11/	-9.70834
납	-9.70845
갑	-9.70854
▁밝힌	-9.70854
▁첨단	-9.70854
▁메시지	-9.70856
▁자리잡	-9.7086
므로	-9.70863
▁늘어난	-9.70863
IMT	-9.70882
▁완전히	-9.70884
▁실패	-9.70923
상품	-9.70934
▁뜻	-9.7094
▁건물	-9.71018
▁인증	-9.711
▁꿈	-9.71118
▁민원	-9.7113
위로	-9.71222
▁노동	-9.71222
▁수십	-9.71249
▁마치	-9.71309
월에는	-9.71328
▁연동	-9.71393
▁수준에	-9.71418
▁벌이고	-9.71442
▁트래픽	-9.71464
▁경쟁을	-9.71484
구조	-9.71527
▁안에	-9.71594
▁가전	-9.71644
▁광고주	-9.71686
▁선수	-9.71714
▁늘고	-9.7183
▁인사	-9.71872
▁스타	-9.71875
sy	-9.7196
▁전략적	-9.72002
▁달하는	-9.72028
준다	-9.72113
▁강화하고	-9.7212
▁70	-9.72154
▁안철수연구소	-9.72164
▁기기	-9.723
▁하나로	-9.72321
▁검색엔진을	-9.72434
▁추정	-9.72581
건수	-9.72622
▁그룹	-9.72662
▁한계	-9.72763
.3%	-9.72771
▁이상을	-9.72774
천만원	-9.72775
칩	-9.72841
▁토	-9.72884
본부	-9.72916
▁안전	-9.72924
▁꼽	-9.72929
업체와	-9.7293
▁제공할	-9.73017
▁부과	-9.73026
▁미디어	-9.73062
량이	-9.73071
월까지	-9.7309
▁나타나	-9.73147
▁등급	-9.73162
▁최신	-9.7317
▁미국과	-9.73193
슈	-9.73272
봇	-9.7329
▁주는	-9.73304
▁미국에서	-9.73407
것	-9.73422
BS	-9.73456
팅	-9.73488
얼	-9.73517
보고서	-9.73567
▁IPv	-9.73579
휴	-9.73612
모델	-9.73647
특	-9.73654
잠	-9.73697
홀	-9.73702
먼	-9.73703
빅	-9.73703
▁거듭	-9.73711
쯤	-9.73711
鄭	-9.73711
▁흐름	-9.73711
홈쇼핑	-9.73713
팀장은	-9.7372
▁들어갔다	-9.73724
채널	-9.7377
▁경남	-9.73772
통합	-9.73797
▁투자를	-9.73896
▁소니	-9.73929
▁시즌	-9.7393
▁연속	-9.73967
분석	-9.74016
검사	-9.74049
kim	-9.74051
▁설	-9.74068
▁안정	-9.74083
▁만나	-9.741
▁심각한	-9.74109
업무	-9.74118
원기자	-9.74226
▁다수	-9.74286
억원에	-9.7429
▁보유한	-9.74417
▁AOL	-9.74518
▁선언	-9.74564
한다면	-9.74602
▁소리	-9.74746
▁경쟁사	-9.74878
▁만한	-9.74887
자들이	-9.74955
▁하나의	-9.74968
▁먹	-9.74994
▁이상이	-9.75054
▁둘	-9.75058
▁돈	-9.7509
기준	-9.75107
케	-9.75374
▁초고속	-9.75395
▁기존의	-9.75479
사업을	-9.75673
큐	-9.75712
▁정리	-9.75941
▁점이	-9.7595
▁필	-9.76119
▁스팸메일을	-9.76168
▁북	-9.76172
▁최소	-9.76317
접	-9.76377
만달러를	-9.76503
im	-9.76504
휘	-9.76593
▁참	-9.76595
끼	-9.76636
홈	-9.76643
▁신용카드	-9.76644
▁뉴욕	-9.76648
▁블랙베리	-9.76652
▁쉽지	-9.76652
▁급부상	-9.76652
번째	-9.76653
▁전시회	-9.76655
▁보여주는	-9.76656
▁차지하는	-9.76659
▁차지하고	-9.7666
▁공무원노조	-9.76663
게이트	-9.7668
▁우수	-9.76681
▁물론이고	-9.76707
6000	-9.76727
▁결함	-9.76757
▁승부	-9.76768
단일화	-9.76772
▁진입	-9.7679
▁금융기관	-9.76791
하더라도	-9.76809
▁부품	-9.76819
▁박차	-9.76851
▁기여	-9.76866
컴퓨팅	-9.76867
▁목적	-9.7687
▁각국	-9.76883
shin	-9.76883
알	-9.76885
공무원	-9.76904
콘텐츠	-9.76905
▁개정안	-9.7695
▁실시간	-9.76971
▁유출	-9.76974
▁사람들이	-9.76978
▁소재	-9.76993
아시아	-9.77
여부	-9.77007
▁지분	-9.77012
▁인천	-9.77017
64	-9.7715
확대	-9.77205
▁차이가	-9.77391
▁서로	-9.77457
▁지원을	-9.77559
▁외국인	-9.77607
분기에	-9.77672
▁클	-9.77708
하겠다고	-9.77766
▁별도의	-9.77823
34	-9.77857
▁클릭	-9.77874
없는	-9.77911
자료	-9.77928
al	-9.77998
바이	-9.78099
▁내년도	-9.78336
▁통신사업자	-9.78407
▁처	-9.78479
▁목	-9.78529
공사	-9.78729
▁추진할	-9.7886
▁한다고	-9.78937
▁60	-9.79068
▁않았	-9.7923
▁페	-9.79277
▁충	-9.7938
eo	-9.79382
▁데다	-9.79407
▁사용한	-9.79414
▁H	-9.79445
벽	-9.7951
스터	-9.79529
2002	-9.79563
▁알고	-9.79678
▁쏟아	-9.79679
▁시장점유율	-9.79683
셀	-9.79683
▁게이츠	-9.79683
▁데이콤	-9.79683
▁악성코드	-9.79684
▁바뀌	-9.79685
▁늘어날	-9.79693
▁발굴	-9.79693
▁귀	-9.79723
랜드	-9.79738
▁분류	-9.79749
▁현행	-9.79761
▁관계자들은	-9.79769
년만에	-9.79807
▁특수	-9.79839
▁크다	-9.79849
충	-9.79851
▁외산	-9.79864
▁40%	-9.79873
▁무려	-9.79913
▁현장	-9.79957
▁적극적으로	-9.79976
▁유해	-9.79994
누	-9.79999
진흥	-9.80041
짓	-9.80064
데이터	-9.80124
58	-9.80125
▁이슈	-9.80138
▁마이	-9.80153
SK	-9.802
▁대북	-9.8021
둔	-9.80216
▁부여	-9.8027
▁상당수	-9.80289
건설	-9.80291
▁800	-9.80333
▁특성	-9.80389
MP	-9.80467
▁애슬론	-9.8054
▁장기	-9.80557
임을	-9.80579
900	-9.80597
▁가치	-9.80646
률이	-9.80676
95	-9.80785
▁네트워크를	-9.80816
▁격	-9.81103
협의회	-9.81129
▁깨	-9.81134
▁자료를	-9.81271
▁면회소	-9.81305
▁형태의	-9.81412
조정	-9.81511
분야에서	-9.81561
▁교환	-9.81737
▁IDC	-9.81763
▁그래픽	-9.81869
▁링크	-9.81883
.9%	-9.81925
▁점유율	-9.82116
되어	-9.8229
▁최대한	-9.82351
▁출시한	-9.82393
46	-9.8241
▁학술	-9.82419
▁전력	-9.82454
▁나타	-9.82546
랑	-9.82547
▁나선	-9.82584
▁오버추어	-9.82708
탁	-9.82801
학교	-9.82804
▁2003/09/	-9.82808
▁VDSL	-9.82808
▁충분히	-9.82808
곤	-9.82808
습니다	-9.82808
▁반드시	-9.82808
▁악화	-9.8282
▁언제	-9.82821
▁대해서도	-9.82822
▁접목	-9.8283
이라면서	-9.82831
▁업계에서는	-9.82835
▁지속	-9.8284
▁인프라	-9.8285
▁존재	-9.82856
▁사태	-9.82897
축구	-9.82898
▁공장	-9.82904
▁경쟁력	-9.82909
▁기초	-9.82917
▁추출	-9.8295
▁설정	-9.82962
▁상업	-9.82987
▁비판	-9.83022
▁민주	-9.8303
▁제조업체	-9.83031
▁금지	-9.83045
▁조정	-9.83054
▁신경	-9.8308
▁공연	-9.83117
▁파일을	-9.83139
▁대출	-9.83188
.6%	-9.83203
▁치열한	-9.8326
IP	-9.83326
막	-9.83379
옥	-9.83399
기능을	-9.83459
▁한달	-9.83485
비스타	-9.83523
▁의문	-9.83526
▁기준으로	-9.83619
생활	-9.83631
▁매년	-9.83683
▁내수	-9.83729
▁알려진	-9.83736
▁유선	-9.83748
경영	-9.83903
조차	-9.83996
▁못해	-9.84007
시키	-9.84102
운동	-9.84167
▁캐	-9.84171
개국	-9.84221
▁부시	-9.84259
▁회장	-9.84314
▁경쟁력을	-9.84324
▁저가	-9.84381
수출	-9.84454
▁「	-9.84483
▁규격	-9.8451
받아	-9.84535
▁교사	-9.84547
32	-9.84655
비율	-9.84813
▁국민통합	-9.84894
86	-9.8509
▁라이브	-9.85093
▁현대전자	-9.85148
▁실시한	-9.85231
▁사용하고	-9.85324
300	-9.85409
안타	-9.85491
허	-9.8556
십	-9.85575
▁가입	-9.85618
51	-9.8562
▁번	-9.85668
▁나온	-9.85686
▁착수	-9.85771
▁박사	-9.85789
▁툴	-9.8586
+	-9.85952
▁행정	-9.85979
느	-9.86018
춘	-9.86028
핑	-9.86029
롭	-9.86033
▁겪고	-9.86033
▁급속히	-9.86033
▁무엇보다	-9.86033
방은주기자	-9.86033
시켰다	-9.86033
짝	-9.86033
톱	-9.86033
▁경기회복	-9.86033
▁얼굴	-9.86033
▁힘입어	-9.86033
▁극대화	-9.86034
디스크	-9.86034
▁가까이	-9.86036
▁이르면	-9.86036
▁열리는	-9.86042
▁지켜	-9.86046
▁그래픽카드	-9.86047
▁나올	-9.86054
▁KTH	-9.86063
▁조짐	-9.86067
lee	-9.86079
▁버전을	-9.86092
▁미칠	-9.86095
▁변경	-9.86141
▁프로그램이	-9.86145
▁정착	-9.86156
▁아래	-9.86187
▁측면에서	-9.86205
▁검색결과	-9.86207
▁공통	-9.86236
▁불러	-9.86283
다음	-9.86292
27	-9.8633
▁상호	-9.86339
▁적극적인	-9.86352
▁MSN	-9.86373
코트	-9.86382
▁소형	-9.86399
▁의료	-9.86437
▁사용자들이	-9.86454
▁조사를	-9.8653
▁부실	-9.86534
▁환자	-9.86639
▁삼성전자가	-9.86704
▁상용	-9.86729
▁정식	-9.86731
답	-9.86783
들어	-9.86814
맥	-9.86877
▁노무현	-9.86949
▁마음	-9.86972
el	-9.87002
▁장관은	-9.87067
▁수신	-9.87102
성장	-9.87113
협상	-9.87134
대응	-9.87175
▁강남	-9.87201
회선	-9.87216
▁가세	-9.87352
▁수집	-9.87366
▁가능성을	-9.87378
▁5000	-9.87627
▁필요가	-9.8776
▁시사	-9.87776
▁활용해	-9.87877
▁심의	-9.87891
작업	-9.87976
지난	-9.88053
▁낸	-9.8808
전문가	-9.88133
공장	-9.88149
리아	-9.88172
▁투	-9.88228
▁공급하는	-9.88228
내용	-9.88251
월드	-9.8832
-1	-9.8838
팬	-9.88555
해지고	-9.88584
씨가	-9.88591
▁치열	-9.88832
▁단순	-9.88905
▁방법을	-9.89083
점이	-9.89086
뉴	-9.89108
▁가능성	-9.89115
▁마케팅을	-9.89117
▁컴퓨팅	-9.89127
솔	-9.89193
IM	-9.89203
▁봇	-9.89219
련	-9.89266
젠	-9.8934
척	-9.89357
▁고성능	-9.89367
▁낮은	-9.89367
▁아마존	-9.89367
▁않으면	-9.89367
▁어렵다	-9.89367
▁젊은	-9.89367
이었던	-9.89367
▁앞두고	-9.89367
▁결의안	-9.89372
▁수도권	-9.89398
▁극복	-9.89398
▁없다는	-9.89407
▁결론	-9.89417
▁편집	-9.89423
▁결과가	-9.8943
마켓	-9.8943
▁업종	-9.89443
▁시청	-9.8945
▁전자정부	-9.89454
발전	-9.89471
▁빼	-9.89483
▁자유	-9.89483
▁공범	-9.89487
카페	-9.89506
▁청구	-9.89514
존	-9.89555
▁신생	-9.89555
▁달성	-9.89582
리얼	-9.89591
동안	-9.89604
▁중순	-9.89608
▁노출	-9.89612
▁개시	-9.89622
▁알아	-9.89713
건의	-9.89725
▁전문업체인	-9.89788
▁애플리케이션을	-9.89835
▁제품군	-9.89839
진단	-9.89891
ver	-9.89898
▁광고를	-9.89906
▁모아	-9.89937
▁폐기	-9.90034
▁판매가	-9.90052
▁벌이	-9.90076
따	-9.9025
▁부진	-9.90364
사업부	-9.90368
트라	-9.90372
전화	-9.90377
받고	-9.90459
대통령	-9.90469
▁문제에	-9.9049
음악	-9.90513
았던	-9.90548
듯	-9.90561
▁조씨	-9.90562
▁못하는	-9.9061
포스트	-9.90657
▁본다	-9.90686
내에서	-9.90712
현상	-9.9076
▁보이지	-9.90766
▁엔터테인먼트	-9.90947
대학교	-9.90988
제작	-9.91026
▁불만	-9.91073
▁확보하고	-9.91125
52	-9.91192
▁사전	-9.91591
▁사례가	-9.91664
▁참여한	-9.91682
▁승	-9.91696
▁과정	-9.91717
▁뿐만	-9.91736
▁정보통신부	-9.91739
업체로	-9.91746
회장	-9.91795
▁제외	-9.91857
작업을	-9.9191
▁정부와	-9.91942
시장은	-9.92158
▁내년에	-9.92183
ID	-9.92281
자들의	-9.92387
▁심각	-9.92436
▁카메라	-9.92439
▁있지	-9.92562
싱	-9.92776
혈	-9.92811
콤	-9.92811
엠	-9.92815
▁경기침체	-9.92815
▁내놓을	-9.92815
▁닷넷	-9.92815
▁로열티	-9.92815
▁요즘	-9.92815
▁일으키	-9.92815
▁있던	-9.92815
▁재건축	-9.92815
▁펼쳐	-9.92815
〓	-9.92815
朴	-9.92815
플러스	-9.92815
▁유무선	-9.92815
입니다	-9.92816
▁흑자	-9.92817
▁bj	-9.92819
▁갈수록	-9.92819
▁줄어들	-9.92819
▁베타	-9.92819
▁높아지고	-9.9282
▁개척	-9.92825
▁콜센터	-9.92827
혁신	-9.92828
슈퍼	-9.92831
▁올들어	-9.92847
▁해커	-9.9286
▁연봉	-9.92917
▁응용	-9.92932
▁얼마나	-9.92935
▁창출	-9.92941
어야	-9.92956
▁아예	-9.92974
▁잡아	-9.92981
▁갈	-9.92997
▁주말	-9.93003
▁35	-9.93016
▁단속	-9.93016
▁재생	-9.93023
▁강행	-9.93048
01	-9.93059
▁가져	-9.93062
▁후보가	-9.93064
▁조합원	-9.93073
4000	-9.93076
▁떨어진	-9.93092
▁관측	-9.93124
만원을	-9.93126
▁조사됐다	-9.93149
8%	-9.93206
▁성사	-9.93223
소송	-9.93312
▁공간	-9.93442
▁것처럼	-9.93453
▁고객을	-9.93762
센터를	-9.93888
▁되지	-9.93948
▁주변	-9.94009
폐	-9.94019
▁정보통신부는	-9.94165
3000	-9.94174
벌	-9.9418
PDA	-9.94182
▁분야를	-9.94184
▁후보는	-9.94226
업계는	-9.94262
객	-9.94345
▁탑재한	-9.94443
▁물고문	-9.94453
▁것이며	-9.94485
▁기업들의	-9.9454
▁전산	-9.94598
▁힘을	-9.94602
▁고객의	-9.94704
기록	-9.94716
▁사고	-9.94804
▁나노	-9.94831
▁업체에	-9.94893
▁150	-9.949
국민	-9.94998
▁h	-9.95019
▁변화가	-9.95245
영화	-9.95424
▁사용자의	-9.95453
건으로	-9.95507
▁마이크로소프트의	-9.95614
▁제품과	-9.95688
▁지역에서	-9.95889
겠	-9.95966
▁단어	-9.96026
짜	-9.96151
ing	-9.962
▁수익성	-9.96205
혹	-9.96256
짐	-9.96349
▁금액	-9.9635
뷰	-9.96356
킹	-9.96366
▁2001/09/	-9.96386
▁침체	-9.96386
잉	-9.96386
해왔다	-9.96386
▁금감원	-9.96386
▁이른바	-9.96386
몬	-9.96386
폴	-9.96386
▁오프라인	-9.96387
▁오픈소스	-9.96387
▁걱정	-9.96387
▁안보리	-9.96388
▁품질	-9.96398
ter	-9.96406
▁노벨	-9.96412
▁적발	-9.96414
▁사이버대학	-9.96416
▁반응을	-9.96448
▁토종	-9.96464
▁용산	-9.96481
▁70%	-9.96489
▁불편	-9.9649
스마트	-9.965
▁통계	-9.96504
EU	-9.96506
▁알려져	-9.96523
▁세부	-9.96531
종목	-9.96537
▁제목	-9.96538
▁부처	-9.9657
채팅	-9.96586
내기	-9.96602
마저	-9.96613
▁구성된	-9.96621
▁겨냥한	-9.96624
▁맞아	-9.96652
▁전날	-9.96805
▁생성	-9.96902
▁전담	-9.96907
▁유사한	-9.96932
▁환경을	-9.96974
▁외에도	-9.97005
▁공정	-9.97092
▁질문에	-9.97127
▁종이	-9.9716
▁원인	-9.97221
▁유명	-9.9723
▁강원	-9.97293
ot	-9.97351
▁풍	-9.9739
▁칩세트	-9.97404
▁기사	-9.97545
▁복권	-9.97576
려는	-9.97737
삼	-9.97801
▁증가했다	-9.97818
▁보험	-9.97902
프로젝트	-9.97944
표준	-9.97947
틀	-9.97957
하라	-9.97993
프로그램	-9.98005
온라인	-9.98043
▁수백	-9.98048
▁주기	-9.98079
▁제주	-9.98103
▁효과가	-9.98189
엔진	-9.98241
▁나라	-9.98251
조직	-9.98392
at	-9.98435
▁예상하고	-9.98439
▁방침을	-9.9846
정보시스템	-9.98477
프레	-9.9863
감을	-9.98643
▁지방	-9.98664
▁드라이브	-9.9877
▁분위기	-9.98905
코드	-9.9902
나노	-9.9908
hs	-9.99105
▁시간이	-9.99113
유형	-9.99229
▁AP	-9.99261
장애인	-9.99304
▁친	-9.99492
le	-9.99498
▁활발	-9.9961
▁97	-9.99614
▁다양	-9.99661
▁출판	-9.99716
작업에	-9.99771
▁노조	-9.99909
▁응	-9.99982
좌	-10.0004
▁단체	-10.0005
▁토론	-10.0007
쿠	-10.0009
▁벗어나	-10.0009
▁있음을	-10.0009
▁즉각	-10.0009
▁혐의로	-10.0009
盧	-10.0009
강병준기자	-10.0009
긍	-10.0009
꺼	-10.0009
UCC	-10.0009
▁가까운	-10.0009
▁뛰어들	-10.0009
▁블로그	-10.0009
▁이끌어	-10.0009
東	-10.0009
park	-10.0009
▁징계	-10.0009
▁검증	-10.0009
▁중간선거	-10.0009
▁작동	-10.0012
▁막을	-10.0013
봐야	-10.0013
▁복제	-10.0013
▁AS	-10.0013
▁개설	-10.0014
▁이르는	-10.0014
▁지불	-10.0016
고객	-10.0017
▁북미	-10.0018
▁2∼3	-10.0019
▁낸드	-10.0019
▁실현	-10.0025
▁유료화	-10.0029
주소	-10.0031
▁실행	-10.0034
▁확대해	-10.0035
▁파산	-10.0035
▁없었다	-10.0036
▁접수	-10.0038
▁근거	-10.0041
▁인재	-10.0043
▁소식	-10.0046
▁발급	-10.0048
▁나선다	-10.0055
▁부사장은	-10.0059
억달러를	-10.006
▁안정성	-10.0066
▁주제	-10.0067
▁BT	-10.0068
▁가능할	-10.0068
▁받	-10.007
▁시설	-10.0078
활동	-10.0079
▁물리	-10.008
▁사용되는	-10.0081
▁몸	-10.0091
▁돌	-10.0097
▁대구	-10.0102
▁탈	-10.0105
▁상대로	-10.0107
km	-10.0111
포토	-10.0114
▁정몽준	-10.0115
▁보장	-10.0124
연합	-10.0124
▁인텔의	-10.0131
들로부터	-10.0131
▁업계는	-10.0137
▁사용자를	-10.0142
장치	-10.0158
▁못한	-10.0169
▁X	-10.0173
▁가정	-10.0176
▁서울지검	-10.0183
▁조흥은행	-10.0185
마크	-10.0191
오피스	-10.0196
▁연방	-10.0197
정보를	-10.0199
했는데	-10.02
▁운영하는	-10.0207
▁美	-10.0209
▁후단협	-10.0209
뉴스	-10.0221
상태	-10.0225
유통	-10.0231
정치	-10.0236
상승	-10.0249
기관인	-10.0251
뿐만	-10.0257
▁능력	-10.0257
대비	-10.0258
▁L	-10.0265
서울	-10.0281
▁팀	-10.0284
▁맥	-10.0285
.8%	-10.0291
제공	-10.0309
▁강점	-10.0317
▁상반기에	-10.0318
받은	-10.0331
인식	-10.0333
행사	-10.035
▁3000	-10.0357
▁성능을	-10.0359
▁별도	-10.0359
▁장악	-10.036
▁붙	-10.0362
%	-10.037
▁지사	-10.0371
▁수요를	-10.0372
더라도	-10.0373
▁만족	-10.0387
균	-10.0391
칙	-10.0393
시큐어	-10.0394
죽	-10.0394
탕	-10.0394
▁가이드라인	-10.0394
▁불법복제	-10.0394
▁태블릿	-10.0394
▁흡수	-10.0394
렌	-10.0394
후지쯔	-10.0394
▁마지막	-10.0394
▁이슬람	-10.0394
▁그룹웨어	-10.0394
네이트	-10.0395
도서관	-10.0395
▁저장장치	-10.0395
▁당분간	-10.0395
▁수익모델	-10.0396
▁툴바	-10.0396
▁벤처투자	-10.0396
▁도시바	-10.0396
▁상당히	-10.0397
▁요소	-10.0398
▁어디	-10.0398
품목	-10.0399
▁건강	-10.0399
▁보완	-10.04
▁근무	-10.0402
▁지속적인	-10.0403
▁경매	-10.0403
▁버	-10.0404
▁부정적	-10.0406
▁외국계	-10.0407
53	-10.0409
dj	-10.0412
▁파문	-10.0412
▁영하	-10.0413
▁명시	-10.0414
▁후반	-10.0417
▁직전	-10.042
▁고민	-10.0423
▁승리	-10.0423
▁선호	-10.0427
▁정확한	-10.0427
▁들어간	-10.0427
▁바이오인포매틱스	-10.0431
▁늘리	-10.0431
▁반군	-10.0431
▁시민	-10.0431
▁관심사	-10.0437
▁수익을	-10.0441
▁자주	-10.0442
정기자	-10.0446
▁방식의	-10.0447
천명	-10.0448
▁별도로	-10.045
받을	-10.045
교통	-10.0462
▁전통	-10.047
▁전문가들	-10.0473
▁가능성도	-10.0477
이하	-10.0483
▁고위	-10.049
▁수준을	-10.049
▁정당	-10.0499
▁헤	-10.0503
▁나오고	-10.0511
▁논란이	-10.0512
▁자기	-10.0515
▁모습을	-10.052
▁115	-10.0523
▁견	-10.0526
▁겸	-10.0528
▁요구했다	-10.0532
▁사용해	-10.0535
▁주목받	-10.0551
▁후보와	-10.0555
▁주고	-10.0565
35	-10.0581
▁모임	-10.0585
J	-10.0595
▁하이닉스	-10.0601
조합	-10.0603
검찰	-10.0613
먹	-10.0616
모니터	-10.0621
캐	-10.0621
네트워크	-10.0623
그동안	-10.0623
맞	-10.0624
▁사이에	-10.0627
참	-10.063
빠	-10.063
▁내리	-10.0637
▁책임자	-10.0645
9%	-10.0647
플래시	-10.0658
▁절	-10.0663
▁협상을	-10.0663
사진	-10.067
대책	-10.0675
▁수사관	-10.0696
▁출시하고	-10.07
it	-10.0706
▁지역의	-10.0729
공화	-10.074
▁퍼	-10.0754
▁선의	-10.0754
▁양도	-10.076
▁신호	-10.0764
▁요인	-10.078
하나	-10.078
▁선대위	-10.0788
▁졸업	-10.0791
괴	-10.0792
턴	-10.0793
랩	-10.0794
생명공학	-10.0794
웅	-10.0794
!	-10.0794
ERP	-10.0794
soft	-10.0794
soon	-10.0794
▁꾸준히	-10.0794
▁둘러싼	-10.0794
▁뛰어난	-10.0794
▁많아	-10.0794
▁삼보컴퓨터	-10.0794
▁양방향	-10.0794
▁얻고	-10.0794
▁육박	-10.0794
▁촬영	-10.0794
▁펼치	-10.0794
▁과태료	-10.0794
놀	-10.0794
빛	-10.0794
잔	-10.0794
▁곧바로	-10.0794
▁국민경선	-10.0794
▁이벤트	-10.0794
▁느끼	-10.0794
▁청와대	-10.0794
▁탄생	-10.0794
▁지난주	-10.0795
▁감안하면	-10.0796
▁복구	-10.0796
▁운용	-10.0797
▁단순히	-10.0799
▁국립	-10.08
센트	-10.0802
갔다	-10.0804
▁지키	-10.0804
머니	-10.0804
하려면	-10.0809
▁적합한	-10.081
▁카드	-10.0811
GB	-10.0812
▁계열사	-10.0817
공개	-10.0819
▁다르다	-10.0819
▁대결	-10.082
54	-10.0823
▁이사는	-10.0825
IA	-10.0826
▁37	-10.0827
▁일반적인	-10.0831
▁센터	-10.0832
▁아직까지	-10.0838
▁출발	-10.0842
▁총장	-10.0844
우리는	-10.0846
▁국민의	-10.0852
▁집행	-10.0861
▁인용	-10.0864
65	-10.0864
▁지난해부터	-10.0867
적이고	-10.0867
▁주문	-10.087
▁공군	-10.0871
▁일대	-10.0884
▁법원	-10.089
▁라이	-10.0891
▁발생한	-10.0892
▁성공한	-10.0897
유니	-10.09
상품권	-10.0904
▁검토하고	-10.0907
없	-10.0916
▁시작으로	-10.0921
▁양사	-10.0922
▁매체	-10.0931
▁인력을	-10.0939
▁의견	-10.0954
만원의	-10.0956
팀이	-10.0968
▁김성	-10.0973
만달러로	-10.098
▁회의	-10.0984
▁워싱턴	-10.0985
▁시대가	-10.0991
▁정소영기자	-10.101
▁조치를	-10.1011
▁사이트에	-10.1013
CE	-10.1018
경찰서	-10.1023
한데	-10.1029
▁장치	-10.1032
▁후보단일화를	-10.1034
번역	-10.1038
▁폐경	-10.1047
마케팅	-10.1055
박스	-10.1055
보험	-10.1056
탈당	-10.1075
▁모습	-10.1082
▁논란	-10.1083
▁미만	-10.1085
생산	-10.1094
▁평가를	-10.1094
운영	-10.1101
▁실무	-10.1105
주택	-10.1105
▁자리	-10.1109
칩을	-10.111
▁운동	-10.1111
▁활동을	-10.1112
90	-10.1117
▁기회	-10.1127
하려	-10.1141
코어	-10.1142
es	-10.1144
▁문을	-10.1149
▁대안	-10.1149
나라	-10.1163
교사	-10.1164
▁한국어	-10.1165
▁기반을	-10.117
▁부각	-10.1174
▁역할	-10.1176
직원	-10.1179
▁음란	-10.1183
▁대전	-10.1194
랜	-10.1196
플레이	-10.12
렉	-10.1202
▁기능도	-10.1202
la	-10.1204
섭	-10.1209
흐	-10.121
푸	-10.121
뛰	-10.121
맹	-10.121
칼	-10.121
▁내놓은	-10.121
▁높여	-10.121
▁떠나	-10.121
▁모으고	-10.121
▁빨리	-10.121
▁사법처리	-10.121
▁손쉽게	-10.121
▁앞세워	-10.121
▁어려운	-10.121
▁엔비디아	-10.121
▁옮겨	-10.121
▁이같이	-10.121
▁있으면	-10.121
디스플레이	-10.121
애니메이션	-10.121
시큐리티	-10.121
프리챌	-10.121
▁나아가	-10.121
▁없으며	-10.121
▁막대한	-10.1211
▁골자로	-10.1211
타이틀	-10.1211
압축	-10.1213
▁걸쳐	-10.1213
논문	-10.1214
▁개편	-10.1214
▁진술	-10.1214
▁투표	-10.1214
▁상품을	-10.1216
순위	-10.1216
▁작성	-10.1216
▁늘려	-10.1217
▁KTF	-10.1218
오늘	-10.1218
▁범위	-10.1221
▁인근	-10.1222
▁하반기부터	-10.1225
▁완전	-10.1227
▁조립	-10.1229
총괄	-10.123
▁촉구했다	-10.1233
차전에서	-10.1237
▁기자회견을	-10.1238
▁공모	-10.1244
▁결성	-10.1245
▁유망	-10.1246
▁보이는	-10.1247
분야의	-10.125
▁유입	-10.1255
▁불안	-10.1258
관광	-10.1262
만여명	-10.1262
▁증가한	-10.1263
▁과학	-10.1264
▁실시간으로	-10.1266
한반도	-10.1281
▁벌인	-10.1286
수기자	-10.1287
▁올해부터	-10.129
▁정체	-10.1299
▁거대	-10.1301
▁E	-10.1306
▁재정	-10.1327
▁김치	-10.133
▁만들고	-10.1331
▁구축을	-10.1332
▁필수적	-10.1332
▁필요로	-10.1332
여서	-10.1338
▁손을	-10.1338
률을	-10.1342
na	-10.1351
▁선발	-10.1357
ho	-10.1361
▁필수	-10.1361
▁문자	-10.1374
▁과정을	-10.1378
▁정책을	-10.1392
▁부동산	-10.1393
▁규모로	-10.1396
▁싸	-10.1405
국장	-10.1413
▁방문자	-10.1433
▁23	-10.1438
▁웹서비스	-10.1439
내년	-10.1442
▁사람은	-10.1453
▁TFT	-10.1463
▁쓸	-10.1464
▁업체를	-10.1475
▁이전에	-10.1477
▁투자자	-10.1479
▁듯	-10.148
▁존	-10.1496
암	-10.15
중앙	-10.1501
스팸메일	-10.1504
▁산자부	-10.1511
to	-10.1515
평균	-10.152
▁우리가	-10.1525
담당	-10.1532
▁책	-10.1547
복권	-10.155
▁우려가	-10.1559
공유	-10.1574
▁닷컴	-10.1576
se	-10.1585
▁마이크로	-10.1591
▁진출을	-10.1593
▁타고	-10.1598
기업의	-10.1601
▁당국	-10.1604
▁지원할	-10.1608
억원으로	-10.161
▁하드디스크	-10.1643
녀	-10.1644
릭	-10.1644
컨	-10.1645
핀	-10.1645
▁2001/10/	-10.1645
▁나왔다	-10.1645
▁높이는	-10.1645
▁눈길을	-10.1645
▁다운로드	-10.1645
▁드러났다	-10.1645
▁떠오르	-10.1645
▁법무장관	-10.1645
▁붕괴	-10.1645
▁셋톱박스	-10.1645
▁아웃바운드	-10.1645
▁엔터프라이즈	-10.1645
▁철저히	-10.1645
▁파트너	-10.1645
맛	-10.1645
실리콘밸리	-10.1645
싱가포르	-10.1645
해리포터	-10.1645
▁이에따라	-10.1645
금칙어	-10.1645
▁다국적	-10.1645
히타치	-10.1645
▁국정조사	-10.1645
▁땅값	-10.1645
▁자판기	-10.1645
▁최초의	-10.1645
▁재사용	-10.1645
▁내세우	-10.1645
▁항목	-10.1645
리서치	-10.1646
▁처벌	-10.1646
▁강세를	-10.1646
▁협조	-10.1646
▁테마	-10.1646
▁불리는	-10.1647
▁지휘	-10.1649
▁결코	-10.165
▁산하	-10.1651
▁보낸	-10.1653
블루	-10.1653
▁계정	-10.1653
▁이상훈	-10.1654
▁중요하다	-10.1654
타임스	-10.1654
▁국내에서도	-10.1655
▁연구원은	-10.1657
▁무너	-10.1658
7000	-10.1659
▁비난	-10.166
▁오래	-10.1666
▁올초	-10.1666
1.0	-10.1667
▁기본적인	-10.1674
▁간단한	-10.1674
수익	-10.1679
▁적자	-10.168
▁외에	-10.1682
▁계열	-10.1683
시키기	-10.1688
▁가격은	-10.169
▁구분	-10.1694
▁표명	-10.1696
▁확보한	-10.1703
▁야후의	-10.1704
▁전격	-10.1712
중이며	-10.1712
▁올린	-10.1714
▁역사	-10.1715
▁활용한	-10.1715
▁확보에	-10.1718
▁임원	-10.1718
▁말한다	-10.1722
▁선물	-10.1725
▁VC	-10.1733
▁암	-10.1734
▁무역	-10.1741
▁산업자원부	-10.1742
▁고전	-10.1751
▁때문으로	-10.1754
▁나타나고	-10.1755
▁보상	-10.1756
▁미군	-10.176
▁빠	-10.1773
대전	-10.1796
▁기대감	-10.1807
▁반해	-10.1819
▁웃	-10.1826
▁대표는	-10.1828
▁주장하고	-10.1832
케이	-10.1835
▁요구하는	-10.1842
경쟁력	-10.1877
▁미리	-10.1882
내외	-10.1887
▁예상되는	-10.1888
변화	-10.1891
▁시대를	-10.1892
▁포함된	-10.19
▁인수한	-10.1901
▁틀	-10.1902
▁메신저	-10.191
em	-10.1912
▁없다고	-10.1919
▁신제품을	-10.192
▁참여해	-10.1951
포트	-10.1959
▁최대의	-10.1959
lo	-10.1965
▁ETRI	-10.1966
▁델	-10.1967
걸	-10.1969
빌	-10.197
▁보는	-10.1971
마이크로소프트	-10.1975
농	-10.1975
책임자	-10.1979
메모리	-10.1984
과학기술	-10.1991
▁보일	-10.1998
컨설팅	-10.1999
매체	-10.2003
▁인간	-10.2004
▁규모가	-10.2004
▁조사에서	-10.2005
▁네	-10.2006
▁정도의	-10.2008
▁옥	-10.2014
협력	-10.2016
▁비롯	-10.2018
반응	-10.2025
▁다음의	-10.2048
▁받았	-10.2051
▁기획	-10.2052
신문	-10.2054
공급	-10.2054
▁상황을	-10.2057
▁규모를	-10.2058
로봇	-10.2062
▁비전	-10.2063
략	-10.2074
▁얼마	-10.2084
▁검출	-10.2085
현대	-10.2088
럼	-10.2091
벤	-10.2098
뇌	-10.21
▁2002/05/	-10.21
▁ADSL	-10.21
시맨틱	-10.21
▁높이기	-10.21
▁방화벽	-10.21
▁벤처창업	-10.21
▁않지만	-10.21
▁얘기	-10.21
▁원내교섭단체	-10.21
▁한꺼번에	-10.21
맨	-10.21
▁세미나	-10.21
▁일환으로	-10.21
▁롯데	-10.21
▁캐나다	-10.21
▁맞춤형	-10.21
▁독립	-10.21
tion	-10.21
▁예정이며	-10.21
▁독점	-10.2101
▁종류	-10.2101
▁인수합병	-10.2101
▁위축	-10.2102
▁명령	-10.2102
▁자연	-10.2102
▁식물	-10.2103
▁답변	-10.2103
▁예정이어서	-10.2103
▁현황	-10.2104
▁국민은행	-10.2104
▁발휘	-10.2104
개혁	-10.2104
▁재벌	-10.2105
맞춤	-10.2105
웨어	-10.2106
▁출현	-10.2106
jy	-10.2107
▁것인지	-10.2108
▁기술적	-10.2109
▁소규모	-10.211
▁받게	-10.2111
▁취업	-10.2111
▁초점을	-10.2111
학생	-10.2114
▁영입	-10.2117
▁적정	-10.2117
▁SIP	-10.2118
▁채무	-10.2119
장관	-10.2119
▁점점	-10.2122
보이스	-10.2126
▁올려	-10.2127
▁기계	-10.2128
▁지난해말	-10.2129
▁자금을	-10.2131
-50	-10.2133
으면서	-10.2133
▁빠르	-10.2134
이후	-10.2135
▁연세대	-10.2136
▁예비	-10.2137
브레	-10.2141
▁광주	-10.2144
▁공략에	-10.2147
▁사람의	-10.2156
▁아무	-10.2157
▁들여	-10.216
▁재미	-10.2164
▁확대를	-10.2165
▁거세	-10.2166
▁단순한	-10.2166
▁신중	-10.2168
▁메인프레임	-10.2172
▁만들기	-10.2174
▁늘어	-10.2181
▁비교해	-10.2187
▁주관	-10.2193
만명으로	-10.2201
업계에	-10.2201
∼6	-10.2203
▁차이	-10.2216
▁인정받	-10.2219
▁방법으로	-10.2224
▁벌금	-10.2227
▁비상	-10.2228
▁왜	-10.2229
▁말까지	-10.223
▁준비하고	-10.223
▁막기	-10.2239
▁5.1	-10.2241
da	-10.2259
▁연구소	-10.2267
▁노조는	-10.2267
▁부문에서	-10.2272
▁담은	-10.2278
▁세계적	-10.2279
▁못할	-10.2284
▁방안도	-10.229
▁열기	-10.2294
▁제안서	-10.2297
▁의회	-10.2315
▁하나로통신	-10.2322
업체들에	-10.234
▁채널을	-10.2382
▁이중	-10.2392
▁속도가	-10.2394
▁커뮤니케이션	-10.24
별로는	-10.2403
ac	-10.2405
▁무대	-10.2412
▁사진을	-10.2423
▁해외시장	-10.2425
▁봉	-10.2433
▁피싱	-10.2439
점으로	-10.2456
∼8	-10.2457
CD	-10.246
효과	-10.246
▁주가가	-10.2465
▁동기	-10.2469
단말기	-10.2471
um	-10.2483
CEO	-10.2485
교수	-10.2487
▁경기도	-10.2491
사용자	-10.25
부족	-10.2503
사이버	-10.2504
▁보인	-10.2508
무역	-10.2513
▁짓	-10.2516
르게	-10.252
▁마찬가지	-10.252
▁0	-10.2523
▁마련한	-10.2527
▁제시한	-10.2535
▁끼	-10.2546
▁전문업체	-10.2548
▁다음은	-10.255
치료	-10.2551
▁분야에서는	-10.2553
▁강화한	-10.2555
▁있을지	-10.2557
▁KMS	-10.2563
학계	-10.2567
방법	-10.2571
▁불가능	-10.2571
혜	-10.2573
▁멀티	-10.2575
떨	-10.2575
鉉	-10.2576
롤	-10.2576
▁긍정적인	-10.2576
▁나눠	-10.2576
▁벤처캐피털	-10.2576
▁새롭게	-10.2576
▁어려울	-10.2576
▁이로써	-10.2576
▁즉시	-10.2576
▁투쟁	-10.2576
꽃	-10.2576
멘	-10.2576
묘	-10.2576
붐	-10.2576
펜	-10.2576
▁사령부	-10.2576
▁일제히	-10.2576
▁시만텍	-10.2576
▁대대적인	-10.2576
▁도쿄	-10.2576
▁크리스	-10.2576
백화점	-10.2576
옵션	-10.2577
▁비중을	-10.2577
▁성장세를	-10.2577
▁미치는	-10.2577
▁석유	-10.2579
▁희망	-10.258
▁형식	-10.2581
▁핵개발	-10.2582
9000	-10.2582
▁시작된	-10.2582
▁자율	-10.2584
병원	-10.2585
▁인텔코리아	-10.2585
▁의존	-10.2585
▁부팅	-10.2586
▁올릴	-10.2588
▁90%	-10.2589
▁자연어	-10.259
▁최근들어	-10.2591
▁PS	-10.2592
▁책정	-10.2593
▁이제는	-10.2593
▁현안	-10.2593
▁60%	-10.2594
▁소환	-10.2596
▁모았다	-10.2597
▁살아	-10.2599
▁출전	-10.2604
▁방향으로	-10.261
▁제거	-10.2613
▁d	-10.2616
▁착수했다	-10.2617
▁차질	-10.2617
시스템즈	-10.2621
▁김민	-10.2623
▁절대	-10.2624
▁나온다	-10.2634
▁받기	-10.2634
▁움직임은	-10.264
▁강도	-10.2647
▁받지	-10.2648
▁들어서	-10.265
ne	-10.2652
▁최소한	-10.2656
▁기록한	-10.2656
▁이어질	-10.2657
▁승인	-10.2662
스코	-10.2663
▁제재	-10.2665
해줄	-10.2667
▁가질	-10.267
▁부상하고	-10.2672
▁나와	-10.2675
▁한컴	-10.268
▁마이크로소프트가	-10.268
만달러의	-10.2693
▁취약	-10.2694
▁적은	-10.2697
▁93	-10.2699
▁로봇	-10.2708
▁정비	-10.2712
▁폭으로	-10.2714
▁선보이고	-10.2716
동향	-10.2719
속도가	-10.272
▁상장	-10.2732
▁주도하는	-10.2734
▁단어를	-10.2736
받는	-10.274
▁회의를	-10.274
▁수익성이	-10.2749
▁단백질	-10.2775
▁전문가들의	-10.2782
▁점유율을	-10.2788
공격	-10.279
▁프로그램은	-10.2805
버리	-10.2806
▁매출이	-10.281
▁강화할	-10.2812
▁상승률	-10.2814
건을	-10.2818
▁누가	-10.2829
▁진행하고	-10.2844
▁출시를	-10.2846
체계를	-10.2849
물질	-10.2853
되자	-10.2862
▁움직임이	-10.2865
▁마이크로소프트는	-10.2866
-0	-10.2866
▁보내는	-10.2907
▁자체가	-10.2928
조사를	-10.2929
전망	-10.293
▁단지	-10.2982
▁SP	-10.2983
ent	-10.2984
▁추가로	-10.2991
▁소비	-10.2998
빈	-10.3009
▁예정인	-10.3015
백업	-10.3015
▁나서는	-10.302
계열	-10.3024
파워	-10.3026
▁방송을	-10.3029
▁보기	-10.3032
BT	-10.3037
▁기능에	-10.3041
▁촉구	-10.3048
ro	-10.305
▁참석한	-10.3051
모드	-10.3051
보건	-10.3051
감이	-10.3052
▁지원한다	-10.3052
▁양측	-10.3055
▁단위	-10.3059
용량	-10.3064
지난해	-10.3065
앤	-10.3068
애널리스트	-10.3068
벨	-10.3071
륙	-10.3072
탐	-10.3073
컵	-10.3075
궁	-10.3076
님	-10.3076
KAIST	-10.3076
OECD	-10.3076
▁그렇지	-10.3076
▁많았다	-10.3076
▁모토로라	-10.3076
▁스피커	-10.3076
▁아래아한글	-10.3076
▁오디오	-10.3076
▁올랐다	-10.3076
▁이뤄질	-10.3076
▁종량제	-10.3076
▁컴덱스	-10.3076
끈	-10.3076
듀	-10.3076
찍	-10.3076
회계연도	-10.3076
EMC	-10.3076
▁최고경영자	-10.3076
▁법무부	-10.3076
▁없애	-10.3076
▁한글과컴퓨터	-10.3076
▁도움이	-10.3076
▁도움을	-10.3076
▁시너지	-10.3076
▁로이터	-10.3076
▁공화당	-10.3076
▁확충	-10.3076
▁상승세를	-10.3077
▁미사일	-10.3077
▁떨어졌다	-10.3077
▁의뢰	-10.3078
혜기자	-10.3078
와이즈	-10.3078
▁인지도	-10.3078
▁점검	-10.3081
민주주의	-10.3081
▁절감	-10.3081
jang	-10.3083
▁시민단체	-10.3083
▁애널리스트는	-10.3083
협약	-10.3084
음에도	-10.3084
8000	-10.3086
▁소송을	-10.3087
▁출하	-10.3088
▁친구	-10.3088
▁거두	-10.3088
▁강북	-10.3092
▁포털사이트	-10.3094
▁연말까지	-10.3095
겼다	-10.3095
▁규모는	-10.3095
▁초래	-10.3096
▁국내에서는	-10.3097
▁상담	-10.3098
▁보증	-10.3101
라이트	-10.3101
▁포함돼	-10.3103
▁비교적	-10.3103
▁통제	-10.3105
▁초청	-10.3105
힌다	-10.3107
DMB	-10.3108
▁조작	-10.3109
여명의	-10.3116
▁우리의	-10.3118
▁소요	-10.3119
▁모양	-10.3121
▁떨어지	-10.3125
▁기술력	-10.3125
▁업무를	-10.3125
▁시판	-10.3128
음성	-10.3132
제조업	-10.3134
▁마찬가지로	-10.3135
▁것이란	-10.3137
▁활발한	-10.3142
▁중반	-10.3146
▁배정	-10.3147
mm	-10.3153
▁백업	-10.3156
▁고소	-10.316
▁금융권	-10.316
▁방송사	-10.316
▁1500	-10.3165
▁늘어나는	-10.3171
▁산업화	-10.3173
수준	-10.3174
수록	-10.3177
▁다음주	-10.3179
▁선전	-10.318
▁해당하는	-10.3186
리그	-10.3202
▁발전을	-10.3202
물로	-10.3204
노조	-10.3204
▁포럼	-10.3205
▁당장	-10.3213
지식	-10.3215
▁45	-10.3218
▁발주	-10.3219
▁포인트	-10.322
▁USB	-10.3221
un	-10.3223
스티	-10.3224
▁지난해보다	-10.3244
▁다만	-10.3246
▁업계가	-10.3246
yun	-10.3255
▁정면	-10.326
▁우리는	-10.3264
▁조사한	-10.3267
전부터	-10.3268
▁대상이	-10.3275
▁인터넷업계	-10.3279
▁고객사	-10.329
▁시간을	-10.3302
거래소	-10.3311
▁감기	-10.3318
▁홍콩	-10.3318
66	-10.3325
▁처리할	-10.3327
▁행위	-10.3347
▁이미지를	-10.3357
기업들이	-10.3365
▁주목을	-10.3372
▁쇼핑	-10.3382
▁후보의	-10.3386
▁웜이	-10.3394
▁고수	-10.3397
기관으로	-10.3423
려면	-10.3428
자금을	-10.3429
▁수업	-10.343
▁확대할	-10.3434
▁리눅스가	-10.3439
CI	-10.3442
전환	-10.3447
▁뉴타운	-10.3449
▁삼성전자의	-10.3491
-2	-10.3503
wh	-10.3517
▁문제로	-10.3536
▁점도	-10.3541
▁판매하는	-10.3548
▁절차	-10.3554
▁동의	-10.3555
▁없었	-10.3558
시즌	-10.3562
유럽	-10.3564
바이러스	-10.3567
▁떨어지는	-10.3568
반도체	-10.357
과정에서	-10.3572
실험	-10.3575
차세대	-10.3582
킬	-10.3583
▁자원	-10.3586
삼성	-10.3587
▁드러	-10.359
▁신속	-10.3594
▁동시	-10.3595
영업	-10.3595
털	-10.3595
징	-10.3597
보기	-10.3599
hcho	-10.3601
ppb	-10.3602
▁갖춰	-10.3602
▁관람객	-10.3602
▁그만큼	-10.3602
▁낮아	-10.3602
▁논쟁	-10.3602
▁늦어도	-10.3602
▁떠오른	-10.3602
▁범죄	-10.3602
▁아날로그	-10.3602
▁안팎의	-10.3602
▁않게	-10.3602
▁이뤄진	-10.3602
▁저렴한	-10.3602
▁촉진	-10.3602
▁클러스터	-10.3602
▁행정자치부	-10.3602
中	-10.3602
武	-10.3602
곽	-10.3602
닝	-10.3602
줬	-10.3602
▁우표제	-10.3602
▁줄어든	-10.3602
▁휴대형	-10.3602
▁게시판	-10.3602
▁배터리	-10.3602
▁지포스	-10.3602
▁무역수지	-10.3602
두루넷	-10.3602
투기지역	-10.3602
▁주변기기	-10.3602
▁복합	-10.3603
▁잘못	-10.3603
▁모르는	-10.3603
▁아무런	-10.3603
▁작품	-10.3603
▁ij	-10.3603
▁ATI	-10.3603
▁소스코드	-10.3603
▁차지했다	-10.3603
클럽	-10.3604
▁패널	-10.3604
▁나타난	-10.3605
▁누구	-10.3605
▁충격	-10.3606
▁줄이기	-10.3606
▁토대로	-10.3607
▁끝난	-10.3607
▁머리	-10.3607
▁늘어나면서	-10.3607
▁산업의	-10.3607
▁결근	-10.3608
▁않았지만	-10.3609
▁직후	-10.3609
▁DW	-10.3609
신뢰	-10.3611
▁개별	-10.3611
▁파란	-10.3612
▁평양	-10.3612
▁집계됐다	-10.3613
▁대중화	-10.3614
했었다	-10.3616
▁가족	-10.3616
▁출연	-10.3616
▁지향	-10.3617
Gb	-10.3618
▁방송국	-10.3618
▁전반적인	-10.3619
▁80%	-10.3619
▁숨진	-10.362
▁방식이	-10.3621
▁것인가	-10.3622
▁패치	-10.3624
▁위상	-10.3624
▁차원의	-10.3625
▁나타내	-10.3625
▁해석	-10.3627
▁통보	-10.3628
▁성공적으로	-10.3629
▁기타	-10.363
▁전세계적으로	-10.3631
▁도약	-10.3634
NS	-10.3637
▁작은	-10.3643
선거	-10.3643
▁외면	-10.3643
▁학위	-10.3646
여명이	-10.3647
▁상경	-10.3649
인텔	-10.365
▁항의	-10.3652
배속	-10.3653
▁조금	-10.3657
IPO	-10.366
▁권고	-10.3665
▁김경	-10.3666
▁말부터	-10.367
▁심화	-10.3679
▁분명	-10.3683
▁한국통신	-10.3684
그린	-10.3685
공동	-10.3687
▁선진	-10.3689
▁학계	-10.369
▁감시	-10.3691
▁고객들이	-10.3693
▁경기가	-10.3696
▁대표적	-10.3701
▁진화	-10.3702
▁확	-10.3706
▁합의했다	-10.3708
피아	-10.3715
▁장애	-10.3717
기업들의	-10.3721
▁남측	-10.373
▁장착한	-10.373
▁공격을	-10.3738
▁공시	-10.3756
ch	-10.3763
li	-10.3767
▁산자부는	-10.3768
조치	-10.3773
▁잡지	-10.3778
ri	-10.3782
▁능력을	-10.3794
▁현재까지	-10.3798
▁환경에서	-10.3819
▁지적하고	-10.3825
ks	-10.3828
▁한계를	-10.3828
▁경찰은	-10.3829
▁공사	-10.3831
▁쓰는	-10.3833
▁참여하는	-10.3833
▁사전에	-10.3839
▁안된다	-10.3842
겠다고	-10.3843
허의	-10.3844
▁J	-10.3851
화면	-10.3857
▁선은	-10.3857
▁전제	-10.387
▁구축해	-10.3873
▁영역을	-10.3885
am	-10.3895
79	-10.3896
사실	-10.3896
브리	-10.3901
방지	-10.391
▁시인	-10.3913
▁자국	-10.3916
시기를	-10.3921
▁줄일	-10.3923
▁분야는	-10.3929
팀을	-10.3932
▁중심의	-10.3946
▁이름을	-10.3947
면적	-10.3948
▁선정된	-10.3948
▁프로젝트에	-10.3958
우고	-10.3959
▁워드	-10.3962
▁분야로	-10.3967
▁방향	-10.3989
▁검토중	-10.3993
▁반영한	-10.3993
▁85	-10.4005
위권	-10.4015
자에게	-10.4031
▁점유율이	-10.404
▁상당	-10.4042
▁둔	-10.4043
▁가능해	-10.4048
▁결제	-10.405
▁대부분이	-10.4058
▁사이트로	-10.4064
IS	-10.4066
공업	-10.4068
▁부사장	-10.4083
▁우위	-10.4088
▁피의자	-10.4106
▁판매하고	-10.4106
년말	-10.4108
▁정확	-10.4122
76	-10.4122
▁성공을	-10.4129
▁논의가	-10.4129
만명을	-10.413
▁강력	-10.413
▁상황에	-10.4145
붙	-10.4145
귀	-10.415
숨	-10.4151
비디오	-10.4153
뒤	-10.4155
민주당	-10.4156
▁내용의	-10.4157
닫	-10.4157
▁긴급	-10.4157
쇼	-10.4157
낭	-10.4157
▁핸디소프트	-10.4158
틴	-10.4158
北	-10.4158
▁GPU	-10.4158
▁낮추	-10.4158
▁뛰어나	-10.4158
▁아마이드	-10.4158
▁어려워	-10.4158
꾼	-10.4158
롬	-10.4158
쌀	-10.4158
▁yukyung	-10.4158
▁아울러	-10.4158
▁내세워	-10.4158
,000	-10.4158
▁지상파	-10.4158
▁보조금	-10.4158
▁만만치	-10.4158
▁낭비	-10.4158
▁떨어져	-10.4158
▁비중이	-10.4159
▁대다수	-10.4159
▁잠정	-10.4159
▁타깃	-10.4159
▁NMS	-10.4159
▁음식	-10.416
▁충남	-10.4161
▁합류	-10.4162
텔레	-10.4162
▁측정	-10.4162
▁동참	-10.4163
조선글	-10.4163
▁없고	-10.4163
▁용의자	-10.4164
▁BIT	-10.4165
▁밀려	-10.4166
제조업체	-10.4166
▁여의도	-10.4166
▁성인물	-10.4168
싸움	-10.4168
▁올렸다	-10.417
▁벌여	-10.417
되도록	-10.4171
▁대검	-10.4173
▁둔화	-10.4173
▁SA	-10.4173
▁공정위	-10.4174
▁전문인력	-10.4174
▁금리	-10.4175
▁증가율	-10.4175
KT	-10.4176
▁관행	-10.4176
▁장소	-10.4177
▁한양대	-10.4178
▁독자적인	-10.4179
테러	-10.418
▁노래	-10.4181
2001	-10.4182
▁재즈	-10.4182
▁손실	-10.4182
▁감안해	-10.4184
▁15:5	-10.4184
이라도	-10.4185
▁움직임	-10.4186
평형	-10.4186
▁확인됐다	-10.419
로서는	-10.4193
▁주류	-10.4193
만명의	-10.4194
▁강경	-10.4194
책임	-10.4196
▁공격적인	-10.4196
신청	-10.4201
▁화학	-10.4202
▁과연	-10.4203
개월간	-10.4203
▁초부터	-10.4204
▁소유	-10.4205
아래	-10.4205
is	-10.4206
▁양당	-10.4207
▁일반적으로	-10.421
▁띠	-10.4212
▁제일	-10.4214
EA	-10.4215
이것이	-10.4221
▁무단	-10.4224
▁출력	-10.4227
국제	-10.4233
▁추적	-10.4233
▁업체로	-10.4234
▁확대될	-10.4236
레스	-10.4236
te	-10.4239
신용카드	-10.4243
HD	-10.4243
자원을	-10.4245
▁호주	-10.4247
▁우수한	-10.4251
AR	-10.4252
▁연계해	-10.4256
▁정도를	-10.4258
▁입력하면	-10.426
▁힘들	-10.4261
▁25%	-10.4264
▁거주	-10.4265
금액	-10.4277
▁하원	-10.4278
▁성장을	-10.4278
▁웹메일	-10.4283
▁인원	-10.429
37	-10.4292
▁움직임을	-10.4295
▁부족한	-10.43
▁추진중인	-10.4301
▁분리	-10.4306
th	-10.4306
▁연결하는	-10.431
▁올리고	-10.4319
▁아키텍처	-10.432
ss	-10.4323
버스	-10.4324
▁무시	-10.433
▁방법이	-10.4332
패스	-10.434
▁인간의	-10.4349
▁고속	-10.435
▁실시하고	-10.4354
활동을	-10.4355
▁있는데다	-10.4358
표시	-10.4361
▁김상	-10.4362
만원으로	-10.4365
▁바이러스가	-10.4382
▁열을	-10.4389
▁마니아	-10.4392
▁곳은	-10.4407
no	-10.4421
▁대통령이	-10.4426
▁수매	-10.4429
▁중간	-10.4438
▁북한은	-10.444
▁본지	-10.4443
▁경제적	-10.445
▁적용할	-10.445
▁결정할	-10.4451
▁96	-10.4461
회원	-10.4461
▁발표할	-10.447
구글은	-10.4476
만명에	-10.4477
▁속도를	-10.4478
ad	-10.4492
▁고용	-10.4496
▁컨소시엄	-10.4532
BC	-10.4536
▁나오는	-10.454
∼2	-10.4555
▁기업들	-10.4568
▁방향을	-10.4571
▁맞고	-10.4578
TB	-10.4604
▁강한	-10.4611
▁과제로	-10.4633
-3	-10.4646
▁이외에	-10.4677
▁호환	-10.4702
부분	-10.4703
▁준비를	-10.4703
▁우려를	-10.4703
군은	-10.4715
외국	-10.4725
▁대중	-10.4729
논	-10.4731
스틱	-10.4732
욱	-10.4739
▁sh	-10.474
섬	-10.4741
밑	-10.4744
텐	-10.4746
렬	-10.4746
땅	-10.4746
랭	-10.4746
rpm	-10.4746
▁2003/05/	-10.4746
▁끌었다	-10.4746
▁내놓았다	-10.4746
▁모스크바	-10.4746
▁캠페인	-10.4746
▁커리큘럼	-10.4746
榮	-10.4746
뒷	-10.4746
밥	-10.4746
벼	-10.4746
셔	-10.4746
죠	-10.4746
프런티어	-10.4746
▁드라마	-10.4746
▁실적회복	-10.4746
▁아크릴	-10.4746
떼	-10.4746
빙	-10.4746
▁진료비	-10.4746
김유경기자	-10.4746
김인순기자	-10.4746
Q	-10.4746
▁두드러	-10.4746
▁어린이	-10.4746
티즌	-10.4746
▁일각에서	-10.4746
▁사표를	-10.4746
▁흔들	-10.4746
▁에너지	-10.4746
▁압박	-10.4746
▁for	-10.4746
▁심지어	-10.4746
▁플래시메모리	-10.4746
변호사	-10.4746
▁수석대표	-10.4746
▁암호화	-10.4747
▁겨울	-10.4747
본부장은	-10.4747
▁없게	-10.4747
▁바이두	-10.4747
▁이명재	-10.4747
훈련	-10.4747
▁목록	-10.4748
▁모니터링	-10.4748
▁개막	-10.4748
▁축소	-10.4748
▁미치지	-10.4748
▁악용	-10.4748
▁집값	-10.4748
▁기점으로	-10.4749
▁빠져	-10.4749
▁수단으로	-10.4749
▁없기	-10.4749
▁게다가	-10.4749
▁힘든	-10.475
▁충북	-10.475
▁체크	-10.475
▁채권단	-10.475
▁취득	-10.475
▁특수효과	-10.4752
▁우리말	-10.4752
▁계산	-10.4752
999	-10.4753
▁들어갈	-10.4754
▁기념	-10.4754
아웃	-10.4754
▁처방	-10.4756
▁증거	-10.4756
▁한국오라클	-10.4756
▁위원장은	-10.4757
▁94	-10.4757
▁아이디어	-10.4757
▁LGIBM	-10.4757
yh	-10.4758
▁단축	-10.476
▁번들	-10.476
▁안정적인	-10.4761
▁구체적으로	-10.4762
▁추격	-10.4762
▁그런	-10.4763
▁직무	-10.4765
과장은	-10.4765
▁권리	-10.4765
▁단독	-10.4766
▁다양화	-10.4768
▁정보처리	-10.4768
호텔	-10.477
▁달려	-10.4771
곳을	-10.4771
▁시절	-10.4771
파리	-10.4772
▁투명	-10.4772
▁식사	-10.4772
▁정밀	-10.4773
▁최소화	-10.4773
SDS	-10.4774
▁100%	-10.4774
▁시장규모	-10.4775
툴	-10.4775
us	-10.4776
▁대처	-10.4777
IPv	-10.4777
▁용어	-10.4777
쇼핑몰	-10.4778
▁우리나라의	-10.4778
러시아	-10.4779
PA	-10.4779
오픈	-10.4779
▁실태	-10.4781
KMS	-10.4782
▁내년초	-10.4782
▁마감	-10.4784
메디	-10.4786
1000	-10.4791
특히	-10.4791
법률	-10.4792
▁사안	-10.4792
▁현금	-10.48
▁장악하고	-10.4801
▁곳이	-10.4806
▁제외하고	-10.4808
출판	-10.4808
▁그것	-10.4811
▁고문	-10.4811
▁자리에서	-10.4813
▁유포	-10.4814
▁신종	-10.4814
▁업체간	-10.4818
▁출자	-10.4818
▁변수	-10.4823
▁분야별	-10.4825
▁전역	-10.4827
▁면에서	-10.4827
▁다르	-10.4828
▁벌일	-10.4835
▁주제로	-10.4836
벤처기업	-10.4845
▁백씨	-10.4852
마트	-10.4857
▁감사	-10.4866
▁끝나는	-10.4869
▁토지	-10.487
보면	-10.4874
▁한발	-10.4882
▁표기	-10.4883
▁매수	-10.4885
▁등장했다	-10.4897
확인	-10.4898
▁회장은	-10.4898
▁잡기	-10.4906
▁자신이	-10.4908
▁광고성	-10.4913
44	-10.4914
▁기회를	-10.4917
▁순수	-10.492
68	-10.4941
▁내린	-10.4945
▁플래시	-10.495
▁중국어	-10.4951
▁인텔이	-10.4993
▁그간	-10.4995
▁기록하고	-10.5039
▁피해가	-10.5044
텔레콤은	-10.5068
▁매일	-10.5082
▁생각한다	-10.5102
추진	-10.5105
▁일반인	-10.5107
▁구축하는	-10.5112
정보통신망	-10.5114
▁반전	-10.5117
▁빚을	-10.5122
▁필요하다는	-10.5128
▁활성화를	-10.5147
▁확대하고	-10.5148
종합	-10.5164
코드명	-10.5167
▁바람이	-10.5176
시청	-10.518
67	-10.5188
▁적용한	-10.5189
제기되고	-10.519
▁의미가	-10.5199
4-	-10.5212
모씨	-10.5242
▁복잡	-10.5322
▁노력을	-10.5324
힌	-10.5332
켓	-10.5359
봐	-10.5364
퓨	-10.537
탑	-10.537
▁제네바	-10.5371
×	-10.5371
▁2002/09/	-10.5371
▁기자간담회	-10.5371
▁디맨드	-10.5371
▁마라톤	-10.5371
▁밝히고	-10.5371
▁생명과학	-10.5371
▁서두르고	-10.5371
▁엄청난	-10.5371
▁완벽하게	-10.5371
▁이루어지	-10.5371
▁있습니다	-10.5371
▁좀더	-10.5371
▁좋아	-10.5371
▁지나치게	-10.5371
準	-10.5371
럴	-10.5371
룬	-10.5371
블래스터	-10.5371
튼	-10.5371
▁뒷받침	-10.5371
▁맞물려	-10.5371
▁매니저	-10.5371
▁청문회	-10.5371
넥	-10.5371
▁워크스테이션	-10.5371
장동준기자	-10.5371
▁보안결함	-10.5371
▁획득	-10.5371
고등학교	-10.5371
위키아	-10.5371
윤대원기자	-10.5371
▁개념의	-10.5371
1972	-10.5371
▁핵무기	-10.5371
▁활기를	-10.5371
▁가속화	-10.5371
▁영업이익	-10.5371
▁복귀	-10.5371
스피치	-10.5371
▁위주로	-10.5371
▁종사자	-10.5371
▁안티바이러스	-10.5371
▁주인공	-10.5371
▁급성장	-10.5372
▁확실	-10.5372
▁식품	-10.5373
▁병행	-10.5373
▁이행	-10.5373
▁여러가지	-10.5373
▁축적	-10.5374
▁생존	-10.5374
▁면책	-10.5374
ISP	-10.5375
커뮤니케이션즈	-10.5375
▁SAR	-10.5375
▁다국어	-10.5376
▁성격	-10.5377
닉스	-10.5377
▁원격	-10.5378
▁돌려	-10.5378
▁가격인하	-10.5378
▁순익	-10.5378
▁사무	-10.5378
▁메모리카드	-10.5379
민족	-10.5386
▁참조	-10.5387
▁밝혀졌다	-10.5388
▁최저	-10.5388
▁현대차	-10.5391
▁분석가는	-10.5391
▁행정부	-10.5393
▁걸러	-10.5393
▁요건	-10.5395
연구개발사업	-10.5397
▁총력을	-10.5398
▁각광받	-10.5401
▁겨냥해	-10.5403
Mb	-10.5404
해질	-10.5405
▁자산	-10.5406
▁직면	-10.5409
▁하우리	-10.5413
돈	-10.5414
▁합성	-10.5415
▁순간	-10.5416
▁250	-10.5416
▁현실화	-10.5416
▁창조	-10.5417
SL	-10.5417
▁고객에게	-10.5421
사랑	-10.5421
▁예보	-10.5424
▁한때	-10.5425
▁입체	-10.5426
▁달아	-10.5428
▁이용자들이	-10.5428
▁출원	-10.5428
▁노하우를	-10.5429
▁입법	-10.5429
▁분산	-10.5431
▁통화	-10.5431
오라클	-10.5433
▁늘어나고	-10.5435
카메라	-10.5436
▁의미한다	-10.5437
갈등	-10.5437
▁상영	-10.5437
관리시스템	-10.5438
피의자	-10.5438
풀	-10.5439
글로벌	-10.544
특허	-10.5442
▁길이	-10.5443
▁미니	-10.5444
▁경우에는	-10.5445
삼성전자	-10.5445
“	-10.5449
▁강화하는	-10.5451
▁제출했다	-10.5451
절차	-10.5457
학술	-10.5459
핵	-10.546
기획	-10.546
▁검색서비스	-10.5465
▁일상	-10.5466
사람	-10.5473
▁파월	-10.5474
▁규정하고	-10.5484
업종	-10.5488
▁대체할	-10.5489
▁정권	-10.5491
▁앞에서	-10.5496
▁김진	-10.5497
폭력	-10.5497
▁성공했다	-10.5498
41	-10.5502
사례	-10.5504
▁플랫폼으로	-10.5505
▁조선	-10.5506
▁권한	-10.5507
▁총선	-10.5513
아직	-10.5514
▁날씨	-10.5527
▁입주	-10.5537
EP	-10.5546
▁차이를	-10.5558
학회	-10.556
▁서버용	-10.5564
▁살인	-10.5567
▁접속할	-10.5575
다른	-10.5581
▁전파	-10.5581
▁의견이	-10.5583
▁북한과	-10.5591
96	-10.5595
개사가	-10.5595
▁활용하는	-10.5597
▁감염된	-10.5604
효과를	-10.5605
▁한계가	-10.5608
▁선정해	-10.5616
ir	-10.5619
▁확인할	-10.562
전국	-10.562
▁이용하는	-10.5621
▁판도	-10.5622
▁1.5	-10.5626
▁차단하는	-10.5626
61	-10.5635
▁걸어	-10.5635
69	-10.5637
▁성장률	-10.564
학년	-10.5643
▁박사는	-10.5643
보급	-10.5655
▁생산하는	-10.5666
▁확장성	-10.5676
▁이래	-10.5689
▁뜻을	-10.5693
▁제출한	-10.57
ol	-10.5701
go	-10.5702
▁기록할	-10.5702
▁발표하고	-10.5705
▁탈당한	-10.5707
▁대통령은	-10.5708
▁부서	-10.5711
하라는	-10.5711
▁유리	-10.5716
▁마련했다	-10.5729
▁제리	-10.5744
된다면	-10.5764
▁구축할	-10.579
▁인권	-10.5794
ta	-10.5796
ex	-10.5806
▁시내	-10.5806
∼200	-10.581
▁부대	-10.5816
▁이용하면	-10.5851
되던	-10.5861
▁기술지원	-10.5862
취약점	-10.588
▁돌리	-10.5891
▁생산성	-10.5893
소자	-10.5894
▁대비해	-10.5912
78	-10.5952
▁끝나	-10.5961
테오마	-10.603
z	-10.6034
빗	-10.6037
핫	-10.6037
졸	-10.6037
search	-10.6038
▁엇갈	-10.6038
▁2002/10/	-10.6038
▁kwjun	-10.6038
▁급격히	-10.6038
▁내놓는	-10.6038
▁동네의원	-10.6038
▁떠올랐다	-10.6038
▁사무총장	-10.6038
▁인공지능	-10.6038
▁잇달아	-10.6038
▁있었던	-10.6038
▁지능형	-10.6038
▁펼칠	-10.6038
▁프리미엄	-10.6038
夢	-10.6038
밤	-10.6038
위키피디아	-10.6038
익스플로러	-10.6038
지적재산권	-10.6038
캠	-10.6038
Z	-10.6038
▁2006/07/	-10.6038
▁가혹행위	-10.6038
▁설문조사	-10.6038
▁워드프로세서	-10.6038
▁이탈리아	-10.6038
▁적절한	-10.6038
돋	-10.6038
딜	-10.6038
뚜	-10.6038
▁철저한	-10.6038
▁기상청	-10.6038
▁신개념	-10.6038
▁현대상선	-10.6038
▁구속된	-10.6038
▁메이저	-10.6038
▁정조국	-10.6038
▁지자체	-10.6038
▁최악의	-10.6038
▁접어들	-10.6038
▁스티브	-10.6038
▁9·11	-10.6038
(16	-10.6038
합니다	-10.6038
▁가시화	-10.6038
▁좌우	-10.6038
▁위주의	-10.6038
▁개념이	-10.6038
▁SOA	-10.6038
▁하늘	-10.6039
▁착공	-10.6039
▁BBC	-10.6039
▁돌풍	-10.6039
▁태그	-10.6039
▁필름	-10.604
▁가슴	-10.604
▁설득	-10.604
욱기자	-10.604
ail	-10.604
▁종료	-10.6041
▁파괴	-10.6041
▁BCP	-10.6041
스카이	-10.6041
▁BSI	-10.6041
▁불붙	-10.6042
▁개봉	-10.6042
▁열풍	-10.6043
▁문구를	-10.6043
▁간판	-10.6043
▁이어지고	-10.6044
▁비공개	-10.6045
▁연평균	-10.6045
▁행동	-10.6045
▁압력	-10.6045
전자종이	-10.6046
▁문책	-10.6046
▁15:3	-10.6046
계좌	-10.6046
대리점	-10.6046
▁줄이고	-10.6047
▁열릴	-10.6048
▁회동	-10.6048
▁특화된	-10.6049
▁종전	-10.605
▁지식검색	-10.6051
▁거품	-10.6051
▁사업부문	-10.6054
▁소폭	-10.6054
▁장기적으로	-10.6054
▁전자책	-10.6054
▁장기적인	-10.6054
준기자	-10.6054
▁과목	-10.6054
▁들었다	-10.6055
▁없지만	-10.6055
▁보고서를	-10.6056
▁의지를	-10.6057
▁몰아	-10.6057
▁불과하다	-10.606
▁인터	-10.606
▁회수	-10.606
▁PPC	-10.6061
▁정부기관	-10.6062
▁담보	-10.6062
▁평소	-10.6062
▁상반기중	-10.6063
▁여론	-10.6063
Com	-10.6063
▁주최	-10.6063
▁조항	-10.6065
▁앞선	-10.6067
▁과학자	-10.6067
▁초반	-10.607
▁동생	-10.6073
▁줄었다	-10.6073
▁보급형	-10.6073
▁점유	-10.6074
▁그림	-10.6076
배기자	-10.6076
▁대학생	-10.6079
▁사용자에게	-10.608
▁보강	-10.6081
▁안티	-10.6082
▁힘들다	-10.6085
▁출판사	-10.6085
▁검색포털	-10.6085
▁단행	-10.6086
▁넘어서	-10.609
▁인체	-10.6092
▁경쟁업체	-10.6092
▁맞게	-10.6094
▁유력	-10.6095
▁보니	-10.6097
▁채권	-10.6098
▁호환성	-10.6104
▁선언했다	-10.6106
▁소비자들이	-10.6107
▁대우	-10.6108
▁호전	-10.6108
▁행자부는	-10.6108
▁비행	-10.6111
▁인구	-10.6112
보존	-10.6113
▁거치	-10.6115
▁중복	-10.612
▁남아	-10.612
▁이외에도	-10.6121
▁확대되고	-10.6124
▁잡스	-10.6126
▁견인	-10.6129
▁신형	-10.613
▁세력	-10.613
▁수행할	-10.6133
혼	-10.6135
▁진전	-10.6136
▁대국	-10.6143
▁맞서	-10.6144
▁정보가전	-10.6146
마이크로	-10.6149
▁실시된	-10.615
▁일시	-10.6151
▁성적	-10.6154
자동차	-10.6156
▁판매되고	-10.6159
커뮤니티	-10.616
▁그러	-10.6161
동영상	-10.6161
▁법정	-10.6162
<	-10.6163
가입자	-10.6163
▁가려	-10.617
합병	-10.617
▁대여	-10.6172
▁기법	-10.6179
▁요구한	-10.6182
▁있어야	-10.6183
▁128	-10.6189
구매	-10.6199
▁사이에서	-10.6199
전송	-10.6206
▁단장	-10.6206
▁때까지	-10.621
▁등장한	-10.6213
▁발생하는	-10.6217
선언	-10.622
▁고려할	-10.6222
▁상승률이	-10.6228
▁감자	-10.6234
영국	-10.6238
기존	-10.6243
▁비전을	-10.6246
▁동원	-10.6252
큐브	-10.6258
▁분위기를	-10.6258
▁관련업계	-10.6268
▁등장할	-10.6269
협의체	-10.6269
당국	-10.627
▁논의할	-10.6281
▁기술력을	-10.6285
▁기업들은	-10.629
화학	-10.6304
▁결정했다	-10.6304
▁실사	-10.6315
▁속에서	-10.6318
▁모델로	-10.6319
▁확보했다	-10.6328
▁시작해	-10.633
▁대세	-10.6332
▁대해선	-10.6336
▁요구하고	-10.635
85	-10.6367
om	-10.6398
▁82	-10.6408
신호	-10.6412
(32	-10.6417
ay	-10.6424
분간	-10.6425
▁지정된	-10.6426
되는데	-10.6427
97	-10.6431
▁김씨	-10.6459
▁유사	-10.6469
행위로	-10.649
웨	-10.6501
AP	-10.6507
받았다	-10.6519
▁늘어나	-10.6564
TI	-10.6574
▁보관	-10.6583
폭발	-10.6588
정권	-10.6595
▁질문	-10.6609
▁라인	-10.6642
▁겨냥	-10.6668
▁간단	-10.6714
켜	-10.6731
럽	-10.674
썬	-10.6741
▁움직	-10.6747
옵	-10.675
▁콘솔	-10.6751
샤	-10.6752
앨	-10.6752
▁외무장관	-10.6752
▁현대중공업	-10.6752
吉	-10.6752
쥐	-10.6752
쾌	-10.6752
톤	-10.6752
▁2006/12/	-10.6752
▁EVDO	-10.6752
▁WGA	-10.6752
▁건설교통부	-10.6752
▁기울이고	-10.6752
▁넘어섰다	-10.6752
▁느낌	-10.6752
▁뛰어넘	-10.6752
▁아시아눅스	-10.6752
▁엘리베이터	-10.6752
▁이르기까지	-10.6752
▁임베디드	-10.6752
▁콘퍼런스	-10.6752
京	-10.6752
泰	-10.6752
벗	-10.6752
선마이크로시스템스	-10.6752
언더파	-10.6752
왕십리	-10.6752
이었으나	-10.6752
주민등록번호	-10.6752
줌	-10.6752
클라이언트	-10.6752
태스크포스	-10.6752
햄	-10.6752
▁cdma	-10.6752
▁완벽한	-10.6752
▁전자우편	-10.6752
메시징	-10.6752
▁국방부	-10.6752
▁다나카	-10.6752
▁우체국	-10.6752
▁총파업	-10.6752
▁더불어	-10.6752
▁생명정보	-10.6752
▁업로드	-10.6752
▁패스포트	-10.6752
라디오	-10.6752
▁손잡고	-10.6752
▁수험생	-10.6752
ESM	-10.6752
▁스마트디스플레이	-10.6752
▁호응을	-10.6752
▁김정길	-10.6752
▁모른다	-10.6752
▁시급하다	-10.6752
▁대표단은	-10.6752
▁무더기	-10.6752
▁격차가	-10.6752
▁최적화	-10.6752
▁초대형	-10.6752
▁NEC	-10.6752
▁대주주	-10.6753
▁수수료	-10.6753
▁비밀번호	-10.6753
▁손옹	-10.6753
▁커지고	-10.6753
Google	-10.6753
▁콘솔게임	-10.6753
▁논리	-10.6753
(45)	-10.6753
▁한미일	-10.6753
역량을	-10.6754
▁디빅	-10.6754
▁폭발적	-10.6754
▁며칠	-10.6754
▁또다시	-10.6755
▁바이오칩	-10.6755
▁회담	-10.6755
▁회피	-10.6755
▁아이디	-10.6756
▁무조건	-10.6756
▁이야기	-10.6756
그리드	-10.6757
▁늘릴	-10.6757
▁상징	-10.6757
▁건축	-10.6757
페이스	-10.6758
▁정상회의	-10.6758
▁긴장	-10.6758
▁계획이며	-10.6759
엔지니어링	-10.676
▁주도권을	-10.6761
▁조사결과	-10.6761
▁만들었다	-10.6762
▁쪽으로	-10.6762
▁천식	-10.6763
▁3∼4	-10.6764
▁사후	-10.6764
▁기업고객	-10.6765
▁맞았다	-10.6766
▁빠르면	-10.6766
범기자	-10.6766
▁명분	-10.6767
▁문제점을	-10.6767
▁학생들의	-10.6767
▁송금	-10.6769
▁반복	-10.6769
▁한국마이크로소프트	-10.6769
▁비밀	-10.677
▁이달부터	-10.6771
▁때마다	-10.6772
▁사양	-10.6774
▁음란물	-10.6775
▁매달	-10.6776
▁효과적으로	-10.6778
▁폭행	-10.6779
▁모집	-10.6779
▁입증	-10.6779
▁네티즌들의	-10.678
▁자회사인	-10.6781
▁불가피할	-10.6781
▁2008	-10.6784
▁배제	-10.6785
▁소비자들의	-10.6786
▁7200	-10.6787
▁예방	-10.6788
▁도달	-10.6791
▁남북간	-10.6793
▁양국	-10.6795
▁노조원	-10.6797
▁약속	-10.6797
▁보통	-10.6798
축제	-10.6799
▁정품	-10.6801
▁집중되고	-10.6802
▁복잡한	-10.6808
▁유리한	-10.6809
▁할당	-10.6813
▁사용자들은	-10.6816
▁배우	-10.6818
▁관건	-10.6818
▁문장	-10.6821
MX	-10.6823
▁요인으로	-10.6824
▁IE	-10.6824
▁1∼2	-10.6828
▁고유	-10.6829
▁전제로	-10.683
av	-10.6841
암호	-10.6848
▁의심	-10.6849
▁140	-10.6852
서류	-10.6853
모델명	-10.6853
▁통신용	-10.6854
▁작용할	-10.686
▁재산	-10.6873
▁감소했다	-10.6877
▁사업단	-10.6878
▁입장이다	-10.6885
▁위치한	-10.6892
▁총장은	-10.6893
FC	-10.6899
▁핵심기술	-10.6901
▁75	-10.6904
▁반응이	-10.691
차전	-10.6915
외교	-10.6916
▁그들의	-10.6917
▁김동	-10.6921
▁과시	-10.6922
▁시중	-10.6927
이라크	-10.6932
▁신용	-10.6941
▁지수	-10.6942
ET	-10.6947
▁의식	-10.6951
▁무상	-10.6953
▁브랜드로	-10.6956
▁주력하고	-10.6967
▁판단하고	-10.6969
총리	-10.6969
설계	-10.6974
▁주력할	-10.698
▁제휴해	-10.6987
SD	-10.7
▁달했다	-10.7006
조건	-10.7029
▁학자들	-10.7045
▁제어	-10.7056
시각	-10.7078
결제	-10.7086
연구기관	-10.7092
자바	-10.7094
▁선언한	-10.7102
▁항공	-10.7129
▁사회적	-10.713
공인인증서	-10.7131
ist	-10.7149
il	-10.7152
타수	-10.7158
투어	-10.716
▁참가자	-10.7221
단체인	-10.7318
2003	-10.7347
전문업체	-10.7358
▁누적	-10.7431
물건	-10.7448
▁감안	-10.7498
▁합작	-10.7507
▁인스턴트	-10.7519
펴	-10.752
흔	-10.7521
룩	-10.7521
웰	-10.7521
▁엑셀	-10.7521
틸	-10.7521
OEM	-10.7521
▁2006/06/	-10.7521
▁듀얼코어	-10.7521
▁뚜렷한	-10.7521
▁받아들여	-10.7521
▁밝히면서	-10.7521
▁세종계획	-10.7521
▁스크린	-10.7521
▁스파이웨어	-10.7521
▁않도록	-10.7521
▁어렵게	-10.7521
▁음주운전	-10.7521
▁이바노프	-10.7521
▁자리매김	-10.7521
▁자존심	-10.7521
▁주둔군	-10.7521
▁카테고리	-10.7521
▁캘리포니아	-10.7521
▁케이아르	-10.7521
▁프로토콜	-10.7521
崔	-10.7521
錫	-10.7521
캠퍼스	-10.7521
플라스틱	-10.7521
SQL	-10.7521
▁CDMA	-10.7521
▁효율성	-10.7521
놨	-10.7521
찌	-10.7521
▁세분화	-10.7521
▁자본금	-10.7521
▁정보격차	-10.7521
PDF	-10.7521
▁음성합성	-10.7521
▁고부가가치	-10.7521
▁노키아	-10.7521
▁어디서나	-10.7521
▁정액제	-10.7521
▁개념을	-10.7521
DRM	-10.7521
▁뜨겁	-10.7521
▁부작용	-10.7521
▁인력양성	-10.7521
▁소프트와이즈	-10.7521
신공항	-10.7521
▁납품	-10.7521
▁타격을	-10.7521
▁일주일	-10.7522
▁활약	-10.7522
▁하이닉스반도체	-10.7522
▁그래서	-10.7522
▁해상도	-10.7522
▁건강보험	-10.7522
▁살펴	-10.7522
▁스팸차단솔루션	-10.7522
▁상무는	-10.7522
▁이동전화단말기	-10.7522
미생물	-10.7522
▁패턴	-10.7523
▁제치고	-10.7523
▁토지거래	-10.7523
▁고도화	-10.7523
▁근접	-10.7523
▁메뉴	-10.7523
번홀	-10.7524
▁중장기	-10.7524
▁퇴치	-10.7524
▁차지한	-10.7524
▁악성	-10.7524
▁알려주는	-10.7524
▁관객	-10.7524
▁RIM	-10.7525
▁송씨는	-10.7525
▁널리	-10.7525
▁행정기관	-10.7525
▁주춤	-10.7526
▁알려지고	-10.7526
▁범용	-10.7526
▁개인정보보호	-10.7526
▁정확히	-10.7528
▁새벽	-10.7528
▁사퇴	-10.7528
▁커피	-10.7528
▁그다지	-10.7528
▁불가능하다	-10.7529
and	-10.7529
▁불허	-10.7529
▁출근	-10.753
▁공존	-10.753
▁건립	-10.753
▁유권자	-10.753
▁테오마는	-10.753
▁기름	-10.753
▁시스템통합	-10.7531
▁만난	-10.7531
▁취약점을	-10.7532
▁공동연구	-10.7533
▁한국썬	-10.7533
▁늘었다	-10.7534
▁꼽히	-10.7534
▁개통	-10.7535
▁못한다	-10.7535
▁사무용	-10.7536
▁변환	-10.7536
▁대답	-10.7536
▁방북	-10.7536
▁못하도록	-10.7537
▁전체회의	-10.7538
▁보낼	-10.754
▁하향	-10.754
▁집권	-10.7541
▁자신들의	-10.7542
▁간부	-10.7544
▁매출액	-10.7544
▁드러나	-10.7545
▁가정용	-10.7546
▁승진	-10.7548
▁화제	-10.755
▁따라잡	-10.7556
▁시작됐다	-10.7557
장벽	-10.7559
▁배제할	-10.7562
▁외형	-10.7563
▁지출	-10.7567
철학	-10.7567
▁후발	-10.7569
▁추진키로	-10.7571
▁68	-10.7571
▁폭발적인	-10.7571
▁판정	-10.7572
▁국면	-10.7573
▁윈도서버	-10.7574
▁일관	-10.7574
▁적어도	-10.7577
▁소모	-10.7577
▁3500	-10.7578
▁시범사업	-10.7582
▁고객들의	-10.7584
불황	-10.7589
▁34%	-10.759
▁연결된	-10.7591
▁구타	-10.7591
▁신속한	-10.7594
▁올해에는	-10.7594
▁기아	-10.7597
▁주고받	-10.76
▁누리	-10.76
▁상실	-10.7601
▁예정이라고	-10.7603
파크	-10.7607
▁두배	-10.7609
▁달성할	-10.7611
▁교원	-10.7613
▁손상	-10.7614
연기자	-10.7615
▁강구	-10.7615
1.1	-10.7616
▁고려대	-10.7625
▁회의에서	-10.7628
▁서명	-10.7628
▁유명한	-10.763
▁우세	-10.7631
▁공조	-10.7639
▁약간	-10.7641
▁나가기	-10.7643
▁가공	-10.765
▁걸리	-10.7652
▁박상	-10.7655
II	-10.7656
비즈	-10.7658
▁사용하지	-10.7658
▁감원	-10.767
▁상금	-10.7674
▁필요할	-10.7678
▁형성할	-10.7679
▁통신서비스	-10.7684
▁한창	-10.7684
▁크지	-10.7685
▁내수시장	-10.7689
▁발생했다	-10.7689
▁따르	-10.7704
▁사내	-10.7704
▁상위	-10.7706
앞	-10.7716
▁추진중	-10.7731
▁검색서비스를	-10.7732
▁구상	-10.7733
델	-10.7747
▁중견	-10.7751
뉴타운	-10.7753
ETRI	-10.7754
그래픽	-10.7758
피싱	-10.7759
ASP	-10.776
XML	-10.7762
엠파스	-10.7762
어떤	-10.7763
현대전자	-10.7764
▁연정	-10.7766
되게	-10.7769
링크	-10.7771
확보	-10.7775
전문가들은	-10.7777
향후	-10.778
발생	-10.778
라이브	-10.7789
상승률	-10.7803
시험	-10.7813
▁가격경쟁	-10.7839
▁198	-10.7862
▁박씨	-10.7862
저장	-10.7878
지사장	-10.789
▁정치적	-10.7894
▁엔지니어	-10.7927
진영	-10.7946
입력	-10.7966
▁여행	-10.8022
▁의원측	-10.8066
았지만	-10.8115
▁개발계획	-10.8208
▁어려움	-10.822
현실적	-10.823
카드빚	-10.8231
달라	-10.8243
▁89	-10.8271
~5	-10.8311
▁측면	-10.8314
▁물러	-10.8327
▁전남	-10.8327
굴	-10.8351
깃	-10.8352
yah	-10.8353
흑	-10.8353
삭	-10.8354
블레이드	-10.8354
인피니온	-10.8354
會	-10.8354
롱	-10.8354
테크놀러지	-10.8354
Y	-10.8354
▁2001/08/	-10.8354
▁경상이익	-10.8354
▁낙관적	-10.8354
▁주택매매가격	-10.8354
▁훼손	-10.8354
네트웍스	-10.8354
익스프레스	-10.8354
헨	-10.8354
Captcha	-10.8354
▁2006/11/	-10.8354
▁감자튀김	-10.8354
▁광범위한	-10.8354
▁국무장관	-10.8354
▁국방장관	-10.8354
▁나타냈다	-10.8354
▁뉴스레터	-10.8354
▁늘어났다	-10.8354
▁데이비드	-10.8354
▁둘러싸고	-10.8354
▁버금가는	-10.8354
▁베어본	-10.8354
▁벤치마크	-10.8354
▁북핵사태	-10.8354
▁손해배상	-10.8354
▁스트리밍	-10.8354
▁식약청	-10.8354
▁우라늄	-10.8354
▁워낙	-10.8354
▁이산가족	-10.8354
▁컨트롤	-10.8354
▁표본채점	-10.8354
▁프로듀서	-10.8354
▁프린팅	-10.8354
▁한국전자통신연구원	-10.8354
哲	-10.8354
在	-10.8354
갚	-10.8354
김익종기자	-10.8354
레드햇	-10.8354
멸	-10.8354
옛	-10.8354
조윤아기자	-10.8354
▁다름없	-10.8354
▁반독점	-10.8354
걸림돌	-10.8354
버추얼	-10.8354
▁동남아	-10.8354
▁바우처	-10.8354
▁송수신	-10.8354
▁국무부	-10.8354
▁커다란	-10.8354
|	-10.8354
▁미분양	-10.8354
박물관	-10.8354
▁공적자금	-10.8354
▁실질적인	-10.8354
KAI	-10.8355
스럽다	-10.8355
▁전교조	-10.8355
▁전년대비	-10.8355
▁가르치	-10.8355
▁구체화	-10.8355
스피드	-10.8355
▁샤론	-10.8355
▁이종범	-10.8355
▁스마트폰	-10.8355
▁의무화	-10.8355
▁그나마	-10.8355
▁김대중	-10.8355
▁나중에	-10.8355
▁무작위	-10.8355
▁이공계	-10.8355
▁전방위	-10.8355
▁필터링	-10.8355
실명제	-10.8355
▁레이저	-10.8355
▁학습	-10.8355
▁이른다	-10.8355
▁기다리	-10.8355
아세안	-10.8355
▁잠식	-10.8355
▁비중은	-10.8355
▁나서기로	-10.8356
▁지닌	-10.8356
▁보이면서	-10.8356
▁파장이	-10.8356
▁바이오벤처기업	-10.8356
▁납치	-10.8356
▁미지수	-10.8356
▁박상규	-10.8356
층짜리	-10.8357
▁자신감을	-10.8357
▁인터뷰에서	-10.8357
인터뷰	-10.8357
▁사망사건	-10.8357
▁비춰	-10.8357
▁알리는	-10.8358
▁충돌	-10.8358
▁독감	-10.8358
▁보이며	-10.8358
▁불가피하다	-10.8359
했음을	-10.8359
줘야	-10.8359
▁탐지	-10.8359
▁일일이	-10.8359
▁탈피	-10.836
▁자극	-10.836
▁사무실	-10.8361
▁확실히	-10.8361
▁항상	-10.8361
섬유	-10.8361
▁성남	-10.8361
▁버그	-10.8361
▁상륙	-10.8361
▁내부거래	-10.8362
▁성향	-10.8362
▁분명히	-10.8362
▁찬성	-10.8362
▁터키	-10.8363
▁출품	-10.8363
▁작전	-10.8363
웨이브	-10.8364
▁수용할	-10.8364
▁걸릴	-10.8365
▁필요성을	-10.8365
▁리더	-10.8366
▁치러	-10.8366
▁몰려	-10.8366
자원관리	-10.8366
▁5∼10	-10.8368
▁임박	-10.8368
RW	-10.8368
▁반박	-10.8369
▁토론회	-10.8369
▁경영관리	-10.837
▁첫날	-10.837
UP	-10.8372
▁생기는	-10.8373
kg	-10.8373
와이드	-10.8374
▁견제	-10.8375
+3	-10.8376
▁진행중인	-10.8376
9.2%	-10.8376
▁효율적으로	-10.8377
▁산정	-10.8378
▁경북	-10.8378
▁시작했으며	-10.8378
음향	-10.8379
▁학생들은	-10.8379
▁자랑하는	-10.8381
▁누구나	-10.8381
▁효율적인	-10.8381
버트	-10.8381
▁합작사	-10.8382
▁거론	-10.8382
메모리스틱	-10.8383
▁고객들에게	-10.8384
▁재편	-10.8385
▁특화	-10.8386
▁은평	-10.8386
순신	-10.8386
▁다루	-10.8386
▁그쳐	-10.839
▁소설	-10.8391
▁월간	-10.8392
▁이달중	-10.8393
▁내릴	-10.8394
▁오류	-10.8394
▁감안할	-10.8396
▁우려된다	-10.8398
▁영문	-10.8399
짜리	-10.8399
API	-10.84
▁가열	-10.84
▁예오	-10.8404
▁전자파	-10.8404
▁고심	-10.8408
하기보다는	-10.841
▁사용자들의	-10.8411
▁완화	-10.8413
▁도청	-10.8414
▁공략하기	-10.8416
▁물러나	-10.8418
▁유발	-10.8418
▁집중적으로	-10.8418
▁제온	-10.842
▁증상	-10.8421
▁우선적으로	-10.8425
박희	-10.8428
▁상품화	-10.8443
▁강하게	-10.8449
▁사망자	-10.8453
▁개발자들이	-10.8457
▁마비	-10.8461
▁전투	-10.8464
▁체결했다	-10.8465
▁배상	-10.8479
▁과금	-10.849
데이터센터	-10.8493
▁도구	-10.8504
만원선	-10.8504
do	-10.8514
▁음성인식기술	-10.853
▁것이었다	-10.8553
타임	-10.8557
▁강조한다	-10.8608
커뮤니케이션	-10.8667
▁담당자	-10.8668
국민통합	-10.8668
드라이브	-10.8669
컨소시엄	-10.8669
휴대폰	-10.867
힘	-10.8679
IDC	-10.868
특별	-10.868
교환	-10.8691
집단	-10.8699
워드	-10.8716
▁3.0	-10.8729
분포	-10.876
▁추위	-10.8765
문구	-10.8778
▁대학원	-10.8798
포크	-10.8942
yb	-10.8958
cha	-10.8982
▁창업자	-10.9008
▁업종별	-10.9142
자동화	-10.9158
NI	-10.9194
▁예금자	-10.9203
▁불가피	-10.9222
all	-10.923
앙	-10.9247
혜택	-10.9258
스토리	-10.9261
쓴	-10.9261
룡	-10.9261
▁시장조사	-10.9263
▁슈퍼컴	-10.9263
킷	-10.9263
픽	-10.9263
▁쓰레기	-10.9263
겁	-10.9263
인터내셔널	-10.9264
▁2006/10/	-10.9264
▁감찰부	-10.9264
▁거뒀다	-10.9264
▁나스닥	-10.9264
▁재정경제부	-10.9264
日	-10.9264
洙	-10.9264
몽	-10.9264
유비쿼터스	-10.9264
▁내놓기	-10.9264
▁능가하는	-10.9264
▁다운로더	-10.9264
▁독특한	-10.9264
▁무엇인지	-10.9264
▁민주노총	-10.9264
▁바람직하다	-10.9264
▁밝히지	-10.9264
▁밝힐	-10.9264
▁보건지소	-10.9264
▁설비투자	-10.9264
▁소홀히	-10.9264
▁순방문자수	-10.9264
▁스웨덴	-10.9264
▁스프레드시트	-10.9264
▁아크릴아마이드	-10.9264
▁안티스팸	-10.9264
▁앞당겨	-10.9264
▁원두커피	-10.9264
▁잇따르	-10.9264
▁자유롭게	-10.9264
▁정기국회	-10.9264
▁지식축적량	-10.9264
▁집단행동	-10.9264
▁창당대회	-10.9264
▁촉각을	-10.9264
▁최명헌	-10.9264
▁최첨단	-10.9264
▁캐싱서버	-10.9264
▁한국전산원	-10.9264
對	-10.9264
韓	-10.9264
깅	-10.9264
럭	-10.9264
룰	-10.9264
룸	-10.9264
삶	-10.9264
신혜선기자	-10.9264
알고리듬	-10.9264
프로그래밍	-10.9264
하나포스닷컴	-10.9264
해왔으나	-10.9264
▁PMC	-10.9264
▁군사작전	-10.9264
▁수신거부	-10.9264
▁시장공략	-10.9264
▁전자화폐	-10.9264
張	-10.9264
▁가맹점	-10.9264
▁급진전	-10.9264
▁도곡동	-10.9264
▁무차별	-10.9264
▁패치파일	-10.9264
선생님	-10.9264
큐브리드	-10.9264
▁서서히	-10.9264
▁케이랩	-10.9264
▁조달단가	-10.9264
금강산	-10.9264
자격증	-10.9264
포젠트	-10.9264
▁선보여	-10.9264
▁무력화	-10.9264
커머스	-10.9264
▁고조되고	-10.9264
CTO	-10.9264
▁스위스	-10.9264
▁경험이	-10.9264
▁행장은	-10.9264
▁중부군	-10.9264
▁습득	-10.9264
▁시카고	-10.9264
▁결실을	-10.9264
▁흔히	-10.9264
세무조사	-10.9264
▁방대한	-10.9264
▁보여주고	-10.9264
▁주사제	-10.9264
▁감자칩	-10.9264
▁협업	-10.9264
▁문화부는	-10.9264
▁정기적으로	-10.9265
▁소극적	-10.9265
icro	-10.9265
김원길	-10.9265
▁이문세	-10.9265
▁털어	-10.9265
▁브린	-10.9265
▁현대자동차	-10.9265
▁국회의원	-10.9265
▁전사적	-10.9265
▁일괄	-10.9266
리니지	-10.9266
뮤직	-10.9266
▁범행	-10.9266
▁현지법인	-10.9267
:59:	-10.9267
▁긴급통신	-10.9268
ack	-10.9268
▁호텔에서	-10.9268
▁급등	-10.9268
▁치매	-10.9269
▁세워	-10.9269
▁학문	-10.9269
▁졸업생	-10.927
▁국제표준	-10.927
▁탈환	-10.927
▁국제전화	-10.927
▁성명을	-10.927
▁득점	-10.9271
▁핵문제	-10.9271
▁인젠	-10.9271
▁부가기능	-10.9271
▁신뢰성	-10.9271
▁몰두	-10.9271
되더라도	-10.9271
▁강력히	-10.9271
▁이달말	-10.9272
▁격추	-10.9273
▁우리은행	-10.9273
▁오랜	-10.9273
▁원래	-10.9273
▁수사관들의	-10.9274
년이면	-10.9275
▁혹은	-10.9275
KIS	-10.9276
▁여름	-10.9276
▁태세	-10.9277
사업자들이	-10.9278
▁광업	-10.9278
앤드	-10.9279
▁개발했다고	-10.9279
▁원장은	-10.9279
▁오염	-10.9279
연합회	-10.928
▁아니지만	-10.928
per	-10.928
▁가능하며	-10.9281
EIP	-10.9281
▁연구결과	-10.9281
▁전통적인	-10.9282
바이트	-10.9282
▁개입	-10.9282
▁치열하게	-10.9282
▁또다른	-10.9283
▁신소프트웨어	-10.9283
벤처투자조합	-10.9284
▁관계자들의	-10.9284
▁막판	-10.9285
▁추진해온	-10.9286
▁발견됐다	-10.9286
▁경향	-10.9287
▁날려	-10.9287
▁권력	-10.9288
▁화질	-10.9288
▁조절	-10.9288
▁이후에도	-10.9289
sj	-10.929
▁발언	-10.9291
▁보고서는	-10.9293
▁870	-10.9296
▁음란성	-10.9297
▁도난	-10.9298
▁면세	-10.9298
▁디지털방송	-10.9298
▁고집	-10.9299
▁휴면	-10.9299
혁명	-10.93
▁특성상	-10.93
▁만하다	-10.93
cm	-10.93
▁최고속	-10.9301
ni	-10.9301
▁지표	-10.9301
▁배출	-10.9304
▁변신	-10.9304
▁아니면	-10.9304
▁이용자들의	-10.9305
▁학생들이	-10.9308
▁조율	-10.9308
대우전자	-10.9309
▁동반	-10.9309
▁세상	-10.9309
▁조달	-10.931
▁넘어선	-10.9313
▁것임을	-10.9313
권역	-10.9313
▁취급	-10.9318
▁대외	-10.9321
▁경영진	-10.9322
하되	-10.9323
▁경우에도	-10.9323
▁발견된	-10.9323
끼리	-10.9324
▁여유	-10.9326
▁안심	-10.9327
▁경계	-10.9327
▁주의를	-10.9327
▁최고급	-10.9328
▁강국	-10.9334
▁운명	-10.9348
▁연출	-10.9351
▁감사원	-10.9351
▁업체들을	-10.9354
▁저조	-10.9363
▁연행	-10.9367
▁대표하는	-10.9368
▁지구	-10.9376
▁당부했	-10.9393
미등록	-10.9423
▁경력	-10.9442
물류	-10.9446
▁초안	-10.9477
259	-10.948
▁만들어진	-10.9485
▁정보통신산업	-10.9485
김순	-10.949
▁경영권	-10.9577
▁명성	-10.959
남북	-10.9616
아웃소싱	-10.9637
메신저	-10.9661
쇼핑	-10.9661
쓸	-10.9664
TFT	-10.9665
초고속	-10.9668
캐릭터	-10.9669
애플리케이션	-10.9672
아파트	-10.9672
NHN	-10.9672
음성인식	-10.9672
노트북	-10.9673
또	-10.9674
HDD	-10.9678
컴포넌트	-10.9678
구조조정	-10.968
검색엔진	-10.968
정보보호	-10.9681
▁홍모	-10.9685
이미지	-10.9691
곧	-10.9692
▁오버추어코리아	-10.9751
▁꼽았	-10.9844
4.0	-10.9918
ME	-10.9925
9%),	-10.996
▁대변인	-11.0189
괄	-11.0213
겼	-11.0224
▁위원	-11.0237
▁적어	-11.0239
▁각광	-11.0239
닉	-11.0244
▁없지	-11.0245
콩	-11.0261
▁트렌드	-11.0262
녹	-11.0263
大	-11.0263
셋	-11.0263
스럽게	-11.0263
꼬	-11.0263
스테이션	-11.0263
元	-11.0263
dreamshot	-11.0264
▁한국정보보호진흥원	-11.0264
닛	-11.0264
봄	-11.0264
젤	-11.0264
#	-11.0264
IEEE	-11.0264
▁2003/08/	-11.0264
▁2003/10/	-11.0264
▁URL	-11.0264
▁곤두세우	-11.0264
▁공무원조합법	-11.0264
▁광범위하게	-11.0264
▁국무총리	-11.0264
▁그렇다고	-11.0264
▁나름대로	-11.0264
▁낮춰	-11.0264
▁내놓겠다	-11.0264
▁라우터	-11.0264
▁명확히	-11.0264
▁민속박물관	-11.0264
▁밀알학교	-11.0264
▁발암의심물질	-11.0264
▁북핵문제	-11.0264
▁수능시험	-11.0264
▁시가총액	-11.0264
▁쓰리알소프트	-11.0264
▁융합기술	-11.0264
▁이뤄져야	-11.0264
▁인덱스	-11.0264
▁잇따른	-11.0264
▁있었지만	-11.0264
▁재해복구	-11.0264
▁최경주는	-11.0264
▁캐피털	-11.0264
▁코코넛	-11.0264
▁획기적으로	-11.0264
▁휴대전화	-11.0264
正	-11.0264
겐	-11.0264
넷스케이프	-11.0264
눌	-11.0264
뚝	-11.0264
럿	-11.0264
릉	-11.0264
멍	-11.0264
밍	-11.0264
배일한기자	-11.0264
쁜	-11.0264
실무접촉	-11.0264
연가투쟁	-11.0264
외환위기	-11.0264
웹스피어	-11.0264
정훈기자	-11.0264
찬반투표	-11.0264
찮	-11.0264
타워팰리스	-11.0264
튜	-11.0264
▁내부거래공시	-11.0264
▁비핵화	-11.0264
▁주상복합	-11.0264
▁최희섭	-11.0264
▁코발트	-11.0264
벡	-11.0264
쁘	-11.0264
칸	-11.0264
▁30∼40	-11.0264
▁오버처	-11.0264
▁중징계	-11.0264
라이코스코리아	-11.0264
릿	-11.0264
▁광대역	-11.0264
▁끌어올리	-11.0264
▁아웃룩	-11.0264
▁음성정보기술	-11.0264
▁일어날	-11.0264
초등학교	-11.0264
팝	-11.0264
▁시장개척	-11.0264
▁윤종용	-11.0264
▁필두로	-11.0264
▁해외진출	-11.0264
신화수기자	-11.0264
▁jykim	-11.0264
▁설기현	-11.0264
▁비공식	-11.0264
▁최우선	-11.0264
▁화려한	-11.0264
▁한화갑	-11.0264
▁이병규	-11.0264
▁재경부	-11.0264
▁제도개선	-11.0264
▁한마디	-11.0264
▁없도록	-11.0264
▁블레이드서버	-11.0264
▁풍부한	-11.0264
CBD	-11.0264
▁장군이	-11.0264
▁내세운	-11.0264
▁기가비트	-11.0264
▁장군의	-11.0264
▁징역	-11.0264
▁동호회	-11.0264
▁대치동	-11.0264
▁사라지	-11.0264
▁슬림	-11.0264
▁HDTV	-11.0264
▁밴드	-11.0264
▁궁금	-11.0264
▁교섭단체	-11.0264
▁일종의	-11.0265
▁쏠리	-11.0265
▁시급한	-11.0265
▁텍스트	-11.0265
▁전년보다	-11.0265
▁쉬운	-11.0265
전공노	-11.0265
▁초유의	-11.0265
▁세우고	-11.0265
▁결혼	-11.0265
▁차장은	-11.0265
▁거둘	-11.0265
▁유용한	-11.0265
▁관련해서는	-11.0265
▁국정원	-11.0266
▁양상을	-11.0266
▁페이지뷰	-11.0266
▁교섭	-11.0266
▁자발적	-11.0266
▁휴먼	-11.0266
tech	-11.0266
▁드러난	-11.0266
▁수비수	-11.0267
▁공공부문	-11.0267
▁명칭	-11.0267
▁없음	-11.0267
▁경제협력	-11.0267
▁동일한	-11.0267
▁중복개발	-11.0268
▁떨어질	-11.0268
▁출하액	-11.0268
▁2002/04/09	-11.0268
▁더이상	-11.0268
▁홍검사	-11.0268
▁그런데	-11.0268
▁유럽연합	-11.0269
▁할머니	-11.0269
▁DID	-11.0269
▁올시즌	-11.027
▁맡겨	-11.0271
▁2002/02/28	-11.0271
▁농축	-11.0271
▁디즈	-11.0272
▁용병	-11.0273
Win	-11.0274
▁행보	-11.0274
▁2002/02/15	-11.0274
▁필터	-11.0274
▁않았으며	-11.0275
▁공짜	-11.0275
▁없었던	-11.0275
▁AV	-11.0275
▁국장은	-11.0275
콜린	-11.0276
▁검출됐다	-11.0276
▁철강	-11.0277
▁두번째	-11.0278
▁길음	-11.028
스타오피스	-11.028
▁억제	-11.0281
▁부가서비스	-11.0281
▁상대방	-11.0281
▁일축	-11.0282
▁비록	-11.0282
▁단점이	-11.0283
▁질적	-11.0284
▁다음날	-11.0285
맥스터	-11.0288
▁들어설	-11.0288
▁지목	-11.0288
▁사용자들에게	-11.0288
▁지도자	-11.0289
▁노동당	-11.0289
▁상봉	-11.0291
▁서체	-11.0291
▁상거래	-11.0293
▁탄력	-11.0294
간접	-11.0294
▁온라인게임	-11.0297
▁시장경쟁	-11.0297
▁맡아	-11.0299
▁소매	-11.03
▁안겨	-11.0302
▁출자금	-11.0303
분께	-11.0304
만개의	-11.0304
▁내렸다	-11.0306
예술	-11.0309
▁한솔	-11.0318
▁다니	-11.032
▁위임	-11.0323
▁시장조사기관	-11.0324
▁도심	-11.033
▁서점	-11.0331
8700	-11.0338
혼합	-11.0342
▁지문	-11.0344
해지면서	-11.0344
ko	-11.0382
대사는	-11.0403
1700	-11.0472
▁교수팀	-11.0474
라인을	-11.0558
▁높아진	-11.0567
▁민간기업	-11.0592
규격	-11.0635
choi	-11.0653
지원센터	-11.0701
▁시작했	-11.0711
시리즈	-11.075
정소영기자	-11.0775
하이닉스	-11.0776
마이크론	-11.0776
美	-11.0776
후단협	-11.0776
「	-11.0778
면회소	-11.0778
뜻	-11.0778
프랑스	-11.078
청소년	-11.0782
펜티엄	-11.0782
잘	-11.0783
과제로	-11.0788
접속	-11.0796
▁무선공인인증	-11.0803
▁1,2	-11.0852
항공기	-11.0881
▁유전체	-11.0885
그래	-11.0947
▁학자	-11.0998
1.1%	-11.1107
▁언어정보	-11.1276
119	-11.1286
▁1.7	-11.1303
▁잠재	-11.1312
획	-11.1329
▁적합	-11.1333
▁마이크	-11.1335
▁자회사	-11.1344
▁자랑	-11.1345
춤	-11.1354
픈	-11.1366
줘	-11.1368
춰	-11.1369
금융감독원	-11.137
롯	-11.137
뮤	-11.1372
옹	-11.1373
明	-11.1373
▁스팸차단	-11.1373
쏠	-11.1373
밴	-11.1374
냥	-11.1375
▁페이지랭크	-11.1375
▁2002/11/	-11.1375
▁2005/12/	-11.1375
▁디렉토리	-11.1375
▁맹활약	-11.1375
▁백과사전	-11.1375
▁파운드리	-11.1375
▁프로그래머	-11.1375
▁훈민정음	-11.1375
꽃배달	-11.1375
끗	-11.1375
와이어드업	-11.1375
챔피언	-11.1375
캔	-11.1375
*	-11.1375
▁2003/04/	-11.1375
▁SCO	-11.1375
▁강도높은	-11.1375
▁광저장장치	-11.1375
▁그럼에도	-11.1375
▁그렇게	-11.1375
▁냉장고	-11.1375
▁떠오를	-11.1375
▁마침내	-11.1375
▁문화관광부	-11.1375
▁박석봉	-11.1375
▁백색가전	-11.1375
▁세웠다	-11.1375
▁소프트뱅크	-11.1375
▁수석부사장	-11.1375
▁숭실대	-11.1375
▁않겠느냐	-11.1375
▁앞다퉈	-11.1375
▁원천봉쇄	-11.1375
▁웹페이지	-11.1375
▁이와함께	-11.1375
▁이코노미스트	-11.1375
▁익숙한	-11.1375
▁징구닷컴	-11.1375
▁초등학생	-11.1375
▁캐시미어	-11.1375
▁턴타이드	-11.1375
▁토지거래허가구역으로	-11.1375
▁평양정보쎈터	-11.1375
▁포화상태	-11.1375
▁하이엔드	-11.1375
▁홈시어터	-11.1375
▁획기적인	-11.1375
善	-11.1375
漢	-11.1375
炳	-11.1375
김종윤기자	-11.1375
됨으로써	-11.1375
렛	-11.1375
마시마로	-11.1375
메일자유모임	-11.1375
솔라리스	-11.1375
앓	-11.1375
엽	-11.1375
온라인우표제	-11.1375
용촉진	-11.1375
인터랙티브	-11.1375
주상돈기자	-11.1375
컨테이너	-11.1375
피카부티	-11.1375
→	-11.1375
▁건교부	-11.1375
▁걸프지역	-11.1375
▁근본적인	-11.1375
▁매출목표	-11.1375
▁밀접한	-11.1375
▁비용절감	-11.1375
▁주가하락	-11.1375
▁켄징턴	-11.1375
▁플레이오프	-11.1375
딘	-11.1375
랍	-11.1375
맵	-11.1375
멋	-11.1375
미쓰비시	-11.1375
스튜디오	-11.1375
MOU	-11.1375
▁고품질	-11.1375
▁그레그	-11.1375
▁급격한	-11.1375
▁상관없이	-11.1375
▁세르게이	-11.1375
▁파격적인	-11.1375
쉴	-11.1375
LAN	-11.1375
▁가트너	-11.1375
PVR	-11.1375
▁급속한	-11.1375
▁원천적으로	-11.1375
▁재혁이	-11.1375
노르웨이	-11.1375
▁앨런	-11.1375
WAS	-11.1375
▁과부하	-11.1375
▁외장형	-11.1375
물리연산	-11.1375
제로데이	-11.1375
MAF	-11.1375
▁3∼5	-11.1375
▁앞장서	-11.1375
▁하락폭이	-11.1375
죽음의	-11.1375
▁어쩔	-11.1375
▁높아지면서	-11.1375
▁마우스	-11.1375
▁순이익	-11.1375
▁입출력	-11.1375
▁초창기	-11.1375
▁로그인	-11.1375
▁내다보고	-11.1375
▁샤프	-11.1375
▁격차를	-11.1375
▁병렬	-11.1375
▁주파수	-11.1375
▁규칙	-11.1375
아쿠나	-11.1375
▁더구나	-11.1375
▁이회창	-11.1375
▁넷피아	-11.1375
▁게놈	-11.1375
기가바이트	-11.1375
▁검거	-11.1375
▁과기부	-11.1375
▁모질라	-11.1375
▁연관성	-11.1375
▁파워셋	-11.1375
▁판매대수	-11.1376
▁호조를	-11.1376
전자지불	-11.1376
▁전담팀을	-11.1376
▁상금왕	-11.1376
▁감사보고서	-11.1376
▁세빗	-11.1376
가채점	-11.1376
李明	-11.1376
▁총무는	-11.1376
▁지배적	-11.1376
▁춘천	-11.1376
▁별다른	-11.1377
▁대외정책	-11.1377
ahn	-11.1377
(31)	-11.1377
▁이직률	-11.1377
인스턴트메신저	-11.1377
▁움직이는	-11.1377
▁왜곡	-11.1377
홈런	-11.1377
▁앞둔	-11.1377
▁쓴다	-11.1377
▁충족	-11.1378
▁정치개혁	-11.1378
(?)	-11.1378
아버지	-11.1378
▁한글도메인	-11.1378
북서비스업체	-11.1378
▁비싸	-11.1379
▁모바일결제	-11.1379
▁민간단체	-11.138
▁무선랜	-11.138
▁PMP	-11.138
▁주소록	-11.1381
▁2002/02/04	-11.1381
▁대북정책	-11.1381
의료기기	-11.1381
▁근절	-11.1381
▁2001/12/28	-11.1382
▁조모씨	-11.1382
▁용역	-11.1383
▁관계없이	-11.1383
▁수상자	-11.1383
▁2001/12/14	-11.1384
▁sw	-11.1384
▁SAP	-11.1384
▁혜택을	-11.1385
▁따져	-11.1385
▁히트	-11.1385
▁시행령	-11.1386
▁판결	-11.1387
▁액수	-11.1387
jec	-11.1387
▁돌아온	-11.1387
▁자금난	-11.1388
▁편의성	-11.1388
▁확신	-11.1388
▁영역별	-11.1388
▁통신장비	-11.1388
▁넘어설	-11.1388
▁초점이	-11.1389
▁수요처	-11.1389
▁평생	-11.139
▁상위권	-11.1391
▁2002/02/21	-11.1391
했거나	-11.1391
▁생겨	-11.1392
▁증설	-11.1392
▁역설	-11.1392
▁규명	-11.1392
▁충실	-11.1393
UN	-11.1394
▁대행사	-11.1394
7.0	-11.1395
▁복사	-11.1395
▁압도	-11.1395
류현	-11.1396
▁세운	-11.1396
▁거친	-11.1396
허가구역	-11.1399
▁향해	-11.1399
▁대국민	-11.1401
해주고	-11.1402
▁안착	-11.1403
하듯	-11.1404
▁14:5	-11.1406
DJ	-11.1416
▁적극적이	-11.1424
▁kh	-11.1424
▁위장	-11.1436
▁잠재력	-11.1439
기본계획	-11.1456
4.5%	-11.1466
▁붙여	-11.1487
998	-11.1586
▁부각시키	-11.1588
cho	-11.1636
4.2%	-11.1639
sk	-11.1661
▁0.0	-11.1742
도시로	-11.1854
설명회	-11.1866
아웃소싱시장	-11.1882
싸	-11.2012
깨	-11.202
방향을	-11.2022
하나로통신	-11.2024
홍콩	-11.2024
못	-11.2024
워싱턴	-11.2025
키워드	-11.2026
조흥은행	-11.2026
둘	-11.2026
엔터테인먼트	-11.2027
라이선스	-11.2027
물고문	-11.2028
안철수연구소	-11.2029
데스크톱	-11.203
도메인	-11.2031
플랫폼	-11.2031
활성화	-11.2031
AMD	-11.2032
DVD	-11.2033
`	-11.2033
중소기업	-11.2034
서울지검	-11.2035
△	-11.2035
새로운	-11.2036
애플	-11.2037
핵심	-11.2039
소비자	-11.2053
9.8%	-11.2333
▁행자부	-11.2489
가전제품	-11.25
▁노하우	-11.2506
혁	-11.2552
▁국세청	-11.2557
갔	-11.2586
▁페라리	-11.2611
▁사운드	-11.2613
횡	-11.2625
▁jyajang	-11.2625
▁전자결재	-11.2625
딥	-11.2625
▁코리안	-11.2625
궈	-11.2625
프로골프	-11.2625
▁2002/07/	-11.2625
▁2003/07/	-11.2625
▁국정감사	-11.2625
▁메트릭스	-11.2625
▁명동지점	-11.2625
▁벤치마킹	-11.2625
▁사채업자	-11.2625
▁새롬기술	-11.2625
▁시행규칙	-11.2625
▁쌍용정보통신	-11.2625
▁양준혁	-11.2625
▁최우수선수	-11.2625
▁한국사이베이스	-11.2625
둥	-11.2625
썩	-11.2625
씀	-11.2625
인간게놈	-11.2625
펙	-11.2625
펠	-11.2625
dpi	-11.2625
▁2004/05/	-11.2625
▁2005/11/	-11.2625
▁JPEG	-11.2625
▁계좌추적	-11.2625
▁공정거래위원회	-11.2625
▁그렇다면	-11.2625
▁나노바이오	-11.2625
▁네덜란드	-11.2625
▁느껴	-11.2625
▁더블클릭	-11.2625
▁뛰어든	-11.2625
▁마땅히	-11.2625
▁못미치는	-11.2625
▁문자메시지	-11.2625
▁방열팬	-11.2625
▁배아줄기세포	-11.2625
▁버퍼링	-11.2625
▁빨라지고	-11.2625
▁사령관은	-11.2625
▁사우디아라비아	-11.2625
▁세워놓고	-11.2625
▁스팸킬러	-11.2625
▁시나리오	-11.2625
▁시정명령을	-11.2625
▁실적악화	-11.2625
▁아크릴아미드	-11.2625
▁엔트랙	-11.2625
▁올바른	-11.2625
▁외환은행	-11.2625
▁이화여대	-11.2625
▁잉크젯프린터	-11.2625
▁적절히	-11.2625
▁티볼리	-11.2625
▁파견근로자	-11.2625
▁프랭크스	-11.2625
▁프로세스를	-11.2625
▁호르몬	-11.2625
允	-11.2625
和	-11.2625
基	-11.2625
柱	-11.2625
洪	-11.2625
甲	-11.2625
載	-11.2625
기가플롭스	-11.2625
꼭	-11.2625
덕수궁	-11.2625
덤	-11.2625
딸	-11.2625
레드헤링	-11.2625
마곡지구	-11.2625
밟	-11.2625
쏜	-11.2625
애니유저넷	-11.2625
읍	-11.2625
쩍	-11.2625
캡	-11.2625
튀	-11.2625
팔미사노	-11.2625
힐	-11.2625
	-11.2625
PKI	-11.2625
▁AFP	-11.2625
▁가상현실	-11.2625
▁근본적으로	-11.2625
▁냅스터	-11.2625
▁리처드	-11.2625
▁보여줬다	-11.2625
▁뿐더러	-11.2625
▁석박사	-11.2625
▁수사본부는	-11.2625
▁실적발표	-11.2625
▁예컨대	-11.2625
▁웨일스	-11.2625
▁테일러	-11.2625
▁프로슈머	-11.2625
▁학부모	-11.2625
▁홍세완	-11.2625
급물살	-11.2625
김포공항	-11.2625
낀	-11.2625
셨	-11.2625
스캐너	-11.2625
윌	-11.2625
KOTRA	-11.2625
VOD	-11.2625
▁겹쳐	-11.2625
▁탁월한	-11.2625
덴	-11.2625
징크스	-11.2625
태평양	-11.2625
프라이머리	-11.2625
VPN	-11.2625
▁초음속	-11.2625
후보단일화추진협의회	-11.2625
MVP	-11.2625
▁로커스	-11.2625
▁비주얼	-11.2625
신영복	-11.2625
프로세싱	-11.2625
▁eylee	-11.2625
▁로엔드	-11.2625
▁복지부	-11.2625
▁임성준	-11.2625
증권전산	-11.2625
korea	-11.2625
▁랭킹	-11.2625
▁불투명	-11.2625
HAM	-11.2625
PGA	-11.2625
▁아프간	-11.2625
스러워	-11.2625
▁확고히	-11.2625
적십자	-11.2625
CBO	-11.2625
▁4∼5	-11.2625
▁이재웅	-11.2625
▁충분한	-11.2625
▁대한민국	-11.2625
▁수뇌부	-11.2625
▁막강한	-11.2625
▁면모를	-11.2625
▁편리하게	-11.2625
▁쓰레기소각장	-11.2625
감기환자	-11.2625
▁숨지게	-11.2625
▁시달리	-11.2625
▁제임스	-11.2625
▁잣대	-11.2625
프로야구	-11.2625
어시스트	-11.2625
▁각별한	-11.2625
▁포괄적	-11.2625
전자부품	-11.2625
▁일어나	-11.2625
▁그래픽칩세트	-11.2625
▁없으나	-11.2625
▁빼앗	-11.2625
▁이근식	-11.2625
▁전기공학	-11.2625
다툼이	-11.2625
▁데뷔	-11.2625
텍사스	-11.2625
▁자연스럽게	-11.2625
▁선생은	-11.2625
▁검열	-11.2625
▁기온이	-11.2625
소각장	-11.2625
▁의외로	-11.2625
▁생물학	-11.2625
▁사업전략을	-11.2625
▁중대형	-11.2625
▁토로했다	-11.2626
파나마	-11.2626
▁이장관은	-11.2626
(37)	-11.2626
▁아수스	-11.2626
▁태풍	-11.2626
▁여기서	-11.2626
▁무제한	-11.2626
▁치열해질	-11.2626
총력전	-11.2626
金大	-11.2626
▁전개될	-11.2626
▁회복세를	-11.2626
▁치닫	-11.2626
연합뉴스	-11.2626
▁런던	-11.2626
▁올린다는	-11.2626
▁뉴욕타임스	-11.2626
▁열리고	-11.2627
▁음악전송	-11.2627
▁용도로	-11.2627
▁우승컵	-11.2627
biz	-11.2627
▁환율	-11.2627
▁절충	-11.2627
▁벨기에	-11.2627
교류협력	-11.2627
▁위탁	-11.2627
▁여론조사	-11.2627
▁체계적인	-11.2627
룡기자	-11.2628
▁자신만의	-11.2628
▁붙잡	-11.2628
▁이승일	-11.2628
▁가능케	-11.2628
▁물밑	-11.2629
:41:	-11.2629
▁한글키워드	-11.2629
▁진흥원	-11.2629
▁2001/12/27	-11.2629
▁자녀	-11.2629
▁평화적	-11.2629
▁2002/02/01	-11.2629
▁준공	-11.2629
▁2001/11/22	-11.2629
▁계층	-11.2629
▁만들겠다는	-11.2629
▁2001/11/23	-11.263
▁금융감독원은	-11.263
▁불러올	-11.263
iz	-11.263
age	-11.263
▁보여준다	-11.263
기온은	-11.263
부문에서는	-11.2631
▁나타날	-11.2631
▁회생	-11.2632
▁라이프	-11.2632
▁유일한	-11.2632
▁2002/02/22	-11.2632
▁종속	-11.2633
▁2002/03/27	-11.2633
▁농협	-11.2633
▁이외의	-11.2633
UX	-11.2633
억원대의	-11.2633
▁명예	-11.2634
▁적립	-11.2634
▁메카	-11.2634
▁액정	-11.2635
▁버디	-11.2636
▁이한동	-11.2637
어느정도	-11.2637
▁복수	-11.264
빌딩	-11.264
한컴리눅스	-11.264
994	-11.2643
유선전화	-11.2645
디렉	-11.2651
▁익명	-11.2656
▁이례적	-11.2657
프로축구	-11.266
▁지나면	-11.268
당선자	-11.2707
▁증권거래	-11.2708
투자조합	-11.2714
6.0	-11.2724
▁14:2	-11.2731
문서관리	-11.2858
▁업적	-11.2871
▁엔지니어들	-11.3301
웃	-11.3431
부동산	-11.3443
마니아	-11.3449
클릭	-11.3451
단백질	-11.3452
끝	-11.3452
넘	-11.3454
DDR	-11.3459
다음커뮤니케이션	-11.3459
멀티미디어	-11.3459
대부분의	-11.3462
때문에	-11.3464
중견기업	-11.3692
▁떨어	-11.3873
990	-11.3913
▁효율적	-11.3967
▁구체적	-11.3982
oogle	-11.4051
▁덧붙	-11.4051
툼	-11.4053
相	-11.4053
샷	-11.4053
비자캐시	-11.4053
팜	-11.4053
▁테스팅	-11.4053
南	-11.4053
▁사회관계장관회의	-11.4053
▁지식발전소	-11.4053
▁코리아와이즈넛	-11.4053
▁콸라룸푸르	-11.4053
▁탈바꿈	-11.4053
덩	-11.4053
파이낸셜	-11.4053
TCOG	-11.4053
WSJ	-11.4053
ance	-11.4053
ystem	-11.4053
▁13:57:	-11.4053
▁2007/02/	-11.4053
▁가전메이커들	-11.4053
▁개성공단	-11.4053
▁공보특보	-11.4053
▁긴밀한	-11.4053
▁김완혁	-11.4053
▁까다로운	-11.4053
▁끌어올릴	-11.4053
▁나간다는	-11.4053
▁네탄야후	-11.4053
▁당좌대월	-11.4053
▁대책마련이	-11.4053
▁동작클록	-11.4053
▁뛰어올랐	-11.4053
▁라스베이거스에서	-11.4053
▁마드리드	-11.4053
▁발빠른	-11.4053
▁벌써부터	-11.4053
▁브로드웨이	-11.4053
▁빨라질	-11.4053
▁설송웅	-11.4053
▁센트리노	-11.4053
▁신용협동조합	-11.4053
▁아쉬움을	-11.4053
▁아이플래넷	-11.4053
▁애그로월	-11.4053
▁엔씨소프트	-11.4053
▁온오프코리아	-11.4053
▁웬만한	-11.4053
▁이루어져	-11.4053
▁이르렀다	-11.4053
▁인센티브	-11.4053
▁저작도구	-11.4053
▁정보통신윤리위원회	-11.4053
▁제외하곤	-11.4053
▁중부지방	-11.4053
▁캄보디아	-11.4053
▁크리스토프씨는	-11.4053
▁태도변화	-11.4053
▁플라이셔	-11.4053
▁하이퍼텍스트	-11.4053
▁회계법인	-11.4053
『	-11.4053
培	-11.4053
奎	-11.4053
尙	-11.4053
昌	-11.4053
源	-11.4053
권상희기자	-11.4053
드림엑스닷넷	-11.4053
땀	-11.4053
매니지먼트	-11.4053
메일환경개선추진협의체	-11.4053
면역거부반응	-11.4053
모빌리티	-11.4053
보건복지부	-11.4053
시킴으로써	-11.4053
쏘	-11.4053
에이스디지텍	-11.4053
올림픽	-11.4053
옵트아웃	-11.4053
잉글랜드	-11.4053
장지영기자	-11.4053
조장은기자	-11.4053
탭	-11.4053
테라플롭스	-11.4053
후지필름	-11.4053
▁13:49:	-11.4053
▁BIFS	-11.4053
▁가벼운	-11.4053
▁개개인의	-11.4053
▁나란히	-11.4053
▁법무법인	-11.4053
▁벨소리	-11.4053
▁시뮬레이션	-11.4053
▁여객선	-11.4053
▁염두에	-11.4053
▁재검토	-11.4053
』	-11.4053
베트남	-11.4053
월스트리트저널	-11.4053
▁MDM	-11.4053
▁가르쳐	-11.4053
▁뉘앙스	-11.4053
▁단체행동	-11.4053
▁명확한	-11.4053
▁에이전트	-11.4053
▁정광철	-11.4053
▁충분하다	-11.4053
▁코드레드	-11.4053
메타데이터	-11.4053
크립토	-11.4053
헛	-11.4053
worm	-11.4053
▁CNN	-11.4053
▁기울여	-11.4053
▁승용차	-11.4053
라보엠	-11.4053
미네소타	-11.4053
▁갑자기	-11.4053
▁수교협상	-11.4053
▁악재가	-11.4053
▁다각적인	-11.4053
▁사업영역	-11.4053
세컨드	-11.4053
stone	-11.4053
▁전자종이신문	-11.4053
에릭슨	-11.4053
▁곳곳에서	-11.4053
▁보이스웨어	-11.4053
▁영수증	-11.4053
콰에로	-11.4053
▁수험표	-11.4053
▁관공서	-11.4053
▁극심한	-11.4053
▁한국과학기술원	-11.4053
▁최선영	-11.4053
▁핵포기	-11.4053
▁공론화	-11.4053
▁관광객	-11.4053
▁부실해소	-11.4053
▁받아들일	-11.4053
▁원천기술	-11.4053
▁코리안클릭	-11.4053
▁이틀간	-11.4053
▁일련의	-11.4053
▁혼란을	-11.4053
골프장	-11.4053
▁베이징	-11.4053
▁유용태	-11.4053
▁정대철	-11.4053
▁공급계약을	-11.4053
▁바란다	-11.4054
▁스마트카드	-11.4054
▁안동선	-11.4054
▁주소창에	-11.4054
청계천	-11.4054
▁어도비	-11.4054
▁한미르	-11.4054
▁탑승	-11.4054
▁전문기업인	-11.4054
애플리케이션임대	-11.4054
▁맥보이	-11.4054
▁그녀는	-11.4054
▁시큐어소프트	-11.4054
액세스	-11.4054
▁이윤수	-11.4054
도코모	-11.4054
▁화이트	-11.4054
▁가시적인	-11.4054
▁연구팀은	-11.4054
▁폰스타	-11.4054
자전거	-11.4054
▁특보는	-11.4054
▁핫메일	-11.4054
정부부처	-11.4054
▁살펴보면	-11.4054
▁초저가	-11.4054
선수권	-11.4054
의문사법	-11.4054
▁툴킷	-11.4054
▁소음이	-11.4054
하우스	-11.4054
▁도전장을	-11.4054
▁녹화	-11.4054
▁당국자는	-11.4054
장세동	-11.4054
▁수신자가	-11.4054
▁받아들이는	-11.4054
트랜스	-11.4054
▁교육과정	-11.4055
▁최하위	-11.4055
회의실에서	-11.4055
▁흑자전환	-11.4055
▁흥행	-11.4055
▁기울였	-11.4055
▁논평	-11.4055
▁자세를	-11.4055
▁이해관계	-11.4055
▁혈중	-11.4055
▁쏟아지고	-11.4055
▁수신자의	-11.4055
보급대수	-11.4055
스미스	-11.4055
▁상하이	-11.4055
주력사업으로	-11.4055
▁엄중	-11.4056
▁상가내	-11.4056
▁sr	-11.4056
▁함유	-11.4056
세이프	-11.4056
▁세가지	-11.4056
▁파장을	-11.4056
▁체계적으로	-11.4056
▁리버스	-11.4056
▁고부가	-11.4057
여종의	-11.4057
▁케이스	-11.4057
▁엄정	-11.4057
▁형편	-11.4058
이정환	-11.4058
▁2002/02/27	-11.4059
▁급락	-11.4059
▁파고들	-11.406
▁당사자	-11.4061
단기적으로	-11.4061
하드디스크드라이브	-11.4062
▁일방적	-11.4064
여건이	-11.4065
▁대두되	-11.4066
lick	-11.4073
주소관리기	-11.4077
다보니	-11.4094
자동번역	-11.4122
8.7%	-11.4149
▁병력	-11.4154
늘	-11.5089
겸	-11.5121
꼽	-11.5126
첫	-11.5127
큰	-11.5131
봤	-11.5681
틱	-11.57
닌	-11.5712
슴	-11.5714
앗	-11.5719
첸	-11.572
q	-11.572
딴	-11.572
랄	-11.572
엎	-11.572
텀	-11.572
▷	-11.572
光	-11.572
憲	-11.572
熙	-11.572
꼴	-11.572
낫	-11.572
냄	-11.572
댄	-11.572
땐	-11.572
떡	-11.572
렁	-11.572
멜	-11.572
랫	-11.572
子	-11.572
小	-11.572
天	-11.572
왜	-11.7119
팔	-11.7125
헤	-11.7125
뢰	-11.7657
겹	-11.772
샘	-11.772
햇	-11.772
킴	-11.772
튬	-11.772
듬	-11.772
뜩	-11.772
맑	-11.772
짤	-11.772
탱	-11.772
仁	-11.772
國	-11.772
姜	-11.772
宗	-11.772
成	-11.772
株	-11.772
民	-11.772
永	-11.772
淵	-11.772
雄	-11.772
곱	-11.772
껑	-11.772
넨	-11.772
둠	-11.772
똥	-11.772
렐	-11.772
붓	-11.772
셰	-11.772
쑤	-11.772
엉	-11.772
젓	-11.772
젖	-11.772
콧	-11.772
톨	-11.772
田	-11.772
닭	-11.772
믹	-11.772
쉘	-11.772
텅	-11.772
世	-11.772
엿	-11.772
켈	-11.772
흠	-11.772
;	-11.772
몸	-11.9622
웜	-11.9622
셈	-11.9625
즐	-11.9626
[	-11.963
및	-11.9633
즌	-12.0199
權	-12.022
人	-12.022
島	-12.022
꽁	-12.022
澤	-12.022
珍	-12.022
덧	-12.022
잎	-12.022
첩	-12.022
戰	-12.022
딕	-12.022
륜	-12.022
흙	-12.022
―	-12.022
一	-12.022
先	-12.022
劉	-12.022
反	-12.022
口	-12.022
喆	-12.022
容	-12.022
川	-12.022
德	-12.022
景	-12.022
植	-12.022
江	-12.022
泓	-12.022
洛	-12.022
淑	-12.022
濟	-12.022
燮	-12.022
純	-12.022
英	-12.022
誠	-12.022
馨	-12.022
넌	-12.022
딱	-12.022
뜰	-12.022
뜸	-12.022
띈	-12.022
뭇	-12.022
뻗	-12.022
섞	-12.022
솟	-12.022
숭	-12.022
얹	-12.022
잭	-12.022
켐	-12.022
쿡	-12.022
펌	-12.022
푹	-12.022
푼	-12.022
굿	-12.022
껍	-12.022
젯	-12.022
띔	-12.022
_	-12.022
法	-12.022
順	-12.022
津	-12.022
둑	-12.3548
놈	-12.355
븐	-12.3553
松	-12.3553
事	-12.3553
贊	-12.3553
껴	-12.3553
前	-12.3553
新	-12.3553
春	-12.3553
낱	-12.3553
윗	-12.3553
츄	-12.3553
캄	-12.3553
펨	-12.3553
》	-12.3553
三	-12.3553
令	-12.3553
信	-12.3553
全	-12.3553
勝	-12.3553
唱	-12.3553
圭	-12.3553
均	-12.3553
徐	-12.3553
敬	-12.3553
斗	-12.3553
木	-12.3553
柄	-12.3553
求	-12.3553
泉	-12.3553
浩	-12.3553
潤	-12.3553
煥	-12.3553
玉	-12.3553
玩	-12.3553
瑾	-12.3553
生	-12.3553
碩	-12.3553
福	-12.3553
裕	-12.3553
郞	-12.3553
雨	-12.3553
靑	-12.3553
黃	-12.3553
곰	-12.3553
궜	-12.3553
낄	-12.3553
띤	-12.3553
륨	-12.3553
빵	-12.3553
쏴	-12.3553
짱	-12.3553
챈	-12.3553
캣	-12.3553
켠	-12.3553
탤	-12.3553
폈	-12.3553
녔	-12.3553
뚱	-12.3553
넸	-12.3553
柳	-12.3553
行	-12.3553
連	-12.3553
雜	-12.3553
쉰	-12.3553
歌	-12.3553
朱	-12.3553
鎔	-12.3553
띠	-12.7957
꿈	-12.7965
◆	-12.7966
맡	-12.7967
뀌	-12.8548
쿄	-12.8549
쩔	-12.8552
걱	-12.8553
仙	-12.8553
圖	-12.8553
섹	-12.8553
周	-12.8553
揆	-12.8553
文	-12.8553
팰	-12.8553
ᄉ	-12.8553
州	-12.8553
옴	-12.8553
μ	-12.8553
】	-12.8553
也	-12.8553
五	-12.8553
亞	-12.8553
協	-12.8553
博	-12.8553
厄	-12.8553
吳	-12.8553
報	-12.8553
外	-12.8553
委	-12.8553
孫	-12.8553
寶	-12.8553
尹	-12.8553
山	-12.8553
康	-12.8553
弗	-12.8553
强	-12.8553
弼	-12.8553
性	-12.8553
故	-12.8553
昇	-12.8553
時	-12.8553
智	-12.8553
朝	-12.8553
架	-12.8553
桓	-12.8553
槿	-12.8553
橋	-12.8553
死	-12.8553
늄	-12.8553
씬	-12.8553
定	-12.8553
氣	-12.8553
【	-12.8553
빚	-12.8978
빼	-13.7999
必	-13.8231
	-13.8232
홉	-13.8233
팻	-13.8234
텨	-13.8235
텝	-13.8236
첼	-13.8237
찔	-13.8238
얏	-13.8239
앱	-13.824
씻	-13.8241
숲	-13.8242
샬	-13.8243
샐	-13.8244
뾰	-13.8245
뻔	-13.8246
뺏	-13.8247
볕	-13.8248
뮌	-13.8249
뭉	-13.825
맘	-13.8251
뤼	-13.8252
떴	-13.8253
둡	-13.8254
됩	-13.8255
댑	-13.8256
늪	-13.8257
낡	-13.8258
굉	-13.8259
黨	-13.826
都	-13.8261
耕	-13.8262
章	-13.8263
印	-13.8264
別	-13.8265
分	-13.8266
《	-13.8267
훙	-13.8268
쪼	-13.8269
쨌	-13.827
짭	-13.8271
짙	-13.8272
잖	-13.8273
윙	-13.8274
옷	-13.8275
옌	-13.8276
씌	-13.8277
숱	-13.8278
샀	-13.8279
빡	-13.828
벅	-13.8281
룽	-13.8282
뛴	-13.8283
뚫	-13.8284
닿	-13.8285
닙	-13.8286
눔	-13.8287
괜	-13.8288
갤	-13.8289
根	-13.829
́	-13.8291
훔	-13.8292
텃	-13.8293
퀴	-13.8294
짚	-13.8295
잊	-13.8296
얽	-13.8297
싫	-13.8298
솜	-13.8299
섣	-13.83
빴	-13.8301
뭘	-13.8302
륭	-13.8303
듐	-13.8304
늬	-13.8305
끓	-13.8306
꽂	-13.8307
깜	-13.8308
긁	-13.8309
겉	-13.831
	-13.8311
흉	-13.8312
컫	-13.8313
쩡	-13.8314
왼	-13.8315
옆	-13.8316
엡	-13.8317
삽	-13.8318
뼈	-13.8319
뺀	-13.832
볍	-13.8321
뱃	-13.8322
밭	-13.8323
멕	-13.8324
릇	-13.8325
뎀	-13.8326
닮	-13.8327
녁	-13.8328
넬	-13.8329
낚	-13.833
긋	-13.8331
굵	-13.8332
갱	-13.8333
安	-13.8334
▦	-13.8335
휩	-13.8336
헐	-13.8337
콸	-13.8338
쫓	-13.8339
쩌	-13.834
앰	-13.8341
싹	-13.8342
뭐	-13.8343
멈	-13.8344
릎	-13.8345
둬	-13.8346
덮	-13.8347
뀔	-13.8348
꼼	-13.8349
겔	-13.835
宋	-13.8351
픔	-13.8352
팡	-13.8353
씽	-13.8354
셉	-13.8355
딪	-13.8356
꿀	-13.8357
깎	-13.8358
궤	-13.8359
갓	-13.836
얇	-13.8361
쁨	-13.8362
띨	-13.8363
늠	-13.8364
꿨	-13.8365
훌	-13.8366
횟	-13.8367
퉈	-13.8368
턱	-13.8369
켄	-13.837
옳	-13.8371
썼	-13.8372
싣	-13.8373
쇠	-13.8374
샌	-13.8375
딧	-13.8376
뀐	-13.8377
ᄋ	-13.8378
흩	-13.8379
튠	-13.838
탓	-13.8381
킥	-13.8382
컸	-13.8383
녕	-13.8384
쿨	-13.8385
쎈	-13.8386
슛	-13.8387
섯	-13.8388
멤	-13.8389
훼	-13.839
퀘	-13.8391
뉘	-13.8392
틈	-13.8393
잦	-13.8394
숫	-13.8395
끔	-13.8396
꺾	-13.8397
깝	-13.8398
걷	-13.8399
■	-13.84
팟	-13.8401
뮬	-13.8402
톰	-13.8403
챙	-13.8404
뿡	-13.8405
뤘	-13.8406
뜬	-13.8407
돕	-13.8408
칫	-13.8409
숍	-13.841
뿌	-13.8411
몫	-13.8412
톡	-13.8413
앉	-13.8414
쌓	-13.8415
똑	-13.8416
캘	-13.8417
짧	-13.8418
쌍	-13.8419
묵	-13.842
뒀	-13.8421
깔	-13.8422
좁	-13.8423
띄	-13.8424
끊	-13.8425
탠	-13.8426
잃	-13.8427
묶	-13.8428
렷	-13.8429
덜	-13.843
눠	-13.8431
꾀	-13.8432
쿼	-13.8433
췄	-13.8434
얘	-13.8435
셜	-13.8436
믿	-13.8437
넛	-13.8438
듣	-13.8439
펀	-13.844
냉	-13.8441
꿔	-13.8442
쯔	-13.8443
웍	-13.8444
붕	-13.8445
깊	-13.8446
핸	-13.8447
헬	-13.8448
촬	-13.8449
낳	-13.845
흘	-13.8451
팽	-13.8452
닐	-13.8453
▽	-13.8454
뽑	-13.8455
끄	-13.8456
싶	-13.8457
굳	-13.8458
좀	-13.8459
웠	-13.846
젊	-13.8461
뱅	-13.8462
묻	-13.8463
듈	-13.8464
훨	-13.8465
팎	-13.8466
듭	-13.8467
즘	-13.8468
렀	-13.8469
읽	-13.847
넣	-13.8471
밸	-13.8472
▲	-13.8473
맷	-13.8474
넓	-13.8475
흡	-13.8476
옮	-13.8477
렴	-13.8478
떻	-13.8479
쏟	-13.848
덱	-13.8481
혐	-13.8482
죄	-13.8483
싼	-13.8484
슷	-13.8485
켰	-13.8486
엑	-13.8487
렵	-13.8488
맺	-13.8489
쇄	-13.849
늦	-13.8491
낙	-13.8492
랙	-13.8493
빨	-13.8494
겪	-13.8495
첨	-13.8496
펼	-13.8497
엇	-13.8498
랐	-13.8499
냈	-13.85
킨	-13.8501
쳤	-13.8502
므	-13.8502
즉	-13.8503
몇	-13.8504
꾸	-13.8505
렇	-13.8506
얻	-13.8507
멀	-13.8508
떠	-13.8509
쉽	-13.851
낮	-13.8511
좋	-13.8512
렸	-13.8513
닥	-13.8514
뤄	-13.8515
눈	-13.8516
잇	-13.8517
섰	-13.8518
촉	-13.8519
끌	-13.852
밖	-13.8521
큼	-13.8522
찾	-13.8523
써	-13.8524
융	-13.8525
났	-13.8526
젝	-13.8527
닷	-13.8528
눅	-13.8529
왔	-13.853
◇	-13.8531
갖	-13.8532
놓	-13.8533
육	-13.8534
팸	-13.8535
졌	-13.8536
찰	-13.8537
였	-13.8538
많	-13.8539
침	-13.854
떤	-13.854
혔	-13.8541
높	-13.8542
템	-13.8543
룹	-13.8544
같	-13.8544
쟁	-13.8545
됐	-13.8546
뷔	-13.8547
었	-13.8547
밝	-13.8548
○	-13.8549
잣	-13.855
않	-13.855
능	-13.8551
있	-13.8552
챌	-13.8552
콰	-13.8552
核	-13.8553
냅	-13.8553
낌	-13.8553
돗	-13.8553
렘	-13.8553
앳	-13.8553
웬	-13.8553
으	-13.8553
챔	-13.8553
퀀	-13.8553
큘	-13.8553
폼	-13.8553
